unsigned char converted_model_tflite[] = {
  0x1c, 0x00, 0x00, 0x00, 0x54, 0x46, 0x4c, 0x33, 0x14, 0x00, 0x20, 0x00,
  0x1c, 0x00, 0x18, 0x00, 0x14, 0x00, 0x10, 0x00, 0x0c, 0x00, 0x00, 0x00,
  0x08, 0x00, 0x04, 0x00, 0x14, 0x00, 0x00, 0x00, 0x1c, 0x00, 0x00, 0x00,
  0xa0, 0x00, 0x00, 0x00, 0xf8, 0x00, 0x00, 0x00, 0x90, 0x25, 0x00, 0x00,
  0xa0, 0x25, 0x00, 0x00, 0xdc, 0x2a, 0x00, 0x00, 0x03, 0x00, 0x00, 0x00,
  0x01, 0x00, 0x00, 0x00, 0x10, 0x00, 0x00, 0x00, 0x00, 0x00, 0x0a, 0x00,
  0x10, 0x00, 0x0c, 0x00, 0x08, 0x00, 0x04, 0x00, 0x0a, 0x00, 0x00, 0x00,
  0x0c, 0x00, 0x00, 0x00, 0x1c, 0x00, 0x00, 0x00, 0x40, 0x00, 0x00, 0x00,
  0x0f, 0x00, 0x00, 0x00, 0x73, 0x65, 0x72, 0x76, 0x69, 0x6e, 0x67, 0x5f,
  0x64, 0x65, 0x66, 0x61, 0x75, 0x6c, 0x74, 0x00, 0x01, 0x00, 0x00, 0x00,
  0x04, 0x00, 0x00, 0x00, 0x88, 0xff, 0xff, 0xff, 0x09, 0x00, 0x00, 0x00,
  0x04, 0x00, 0x00, 0x00, 0x0c, 0x00, 0x00, 0x00, 0x6f, 0x75, 0x74, 0x70,
  0x75, 0x74, 0x5f, 0x6c, 0x61, 0x79, 0x65, 0x72, 0x00, 0x00, 0x00, 0x00,
  0x01, 0x00, 0x00, 0x00, 0x04, 0x00, 0x00, 0x00, 0x06, 0xdb, 0xff, 0xff,
  0x04, 0x00, 0x00, 0x00, 0x11, 0x00, 0x00, 0x00, 0x69, 0x6e, 0x70, 0x75,
  0x74, 0x5f, 0x6c, 0x61, 0x79, 0x65, 0x72, 0x5f, 0x69, 0x6e, 0x70, 0x75,
  0x74, 0x00, 0x00, 0x00, 0x02, 0x00, 0x00, 0x00, 0x34, 0x00, 0x00, 0x00,
  0x04, 0x00, 0x00, 0x00, 0xdc, 0xff, 0xff, 0xff, 0x0c, 0x00, 0x00, 0x00,
  0x04, 0x00, 0x00, 0x00, 0x13, 0x00, 0x00, 0x00, 0x43, 0x4f, 0x4e, 0x56,
  0x45, 0x52, 0x53, 0x49, 0x4f, 0x4e, 0x5f, 0x4d, 0x45, 0x54, 0x41, 0x44,
  0x41, 0x54, 0x41, 0x00, 0x08, 0x00, 0x0c, 0x00, 0x08, 0x00, 0x04, 0x00,
  0x08, 0x00, 0x00, 0x00, 0x0b, 0x00, 0x00, 0x00, 0x04, 0x00, 0x00, 0x00,
  0x13, 0x00, 0x00, 0x00, 0x6d, 0x69, 0x6e, 0x5f, 0x72, 0x75, 0x6e, 0x74,
  0x69, 0x6d, 0x65, 0x5f, 0x76, 0x65, 0x72, 0x73, 0x69, 0x6f, 0x6e, 0x00,
  0x0d, 0x00, 0x00, 0x00, 0x94, 0x24, 0x00, 0x00, 0x8c, 0x24, 0x00, 0x00,
  0x78, 0x24, 0x00, 0x00, 0x60, 0x23, 0x00, 0x00, 0xd0, 0x22, 0x00, 0x00,
  0xc0, 0x21, 0x00, 0x00, 0xb0, 0x01, 0x00, 0x00, 0xa0, 0x00, 0x00, 0x00,
  0x98, 0x00, 0x00, 0x00, 0x90, 0x00, 0x00, 0x00, 0x88, 0x00, 0x00, 0x00,
  0x68, 0x00, 0x00, 0x00, 0x04, 0x00, 0x00, 0x00, 0xba, 0xdb, 0xff, 0xff,
  0x04, 0x00, 0x00, 0x00, 0x54, 0x00, 0x00, 0x00, 0x0c, 0x00, 0x00, 0x00,
  0x08, 0x00, 0x0e, 0x00, 0x08, 0x00, 0x04, 0x00, 0x08, 0x00, 0x00, 0x00,
  0x10, 0x00, 0x00, 0x00, 0x24, 0x00, 0x00, 0x00, 0x00, 0x00, 0x06, 0x00,
  0x08, 0x00, 0x04, 0x00, 0x06, 0x00, 0x00, 0x00, 0x04, 0x00, 0x00, 0x00,
  0x00, 0x00, 0x00, 0x00, 0x00, 0x00, 0x0a, 0x00, 0x10, 0x00, 0x0c, 0x00,
  0x08, 0x00, 0x04, 0x00, 0x0a, 0x00, 0x00, 0x00, 0x02, 0x00, 0x00, 0x00,
  0x02, 0x00, 0x00, 0x00, 0x04, 0x00, 0x00, 0x00, 0x06, 0x00, 0x00, 0x00,
  0x32, 0x2e, 0x31, 0x35, 0x2e, 0x30, 0x00, 0x00, 0x1a, 0xdc, 0xff, 0xff,
  0x04, 0x00, 0x00, 0x00, 0x10, 0x00, 0x00, 0x00, 0x31, 0x2e, 0x35, 0x2e,
  0x30, 0x00, 0x00, 0x00, 0x00, 0x00, 0x00, 0x00, 0x00, 0x00, 0x00, 0x00,
  0x00, 0xd7, 0xff, 0xff, 0x04, 0xd7, 0xff, 0xff, 0x08, 0xd7, 0xff, 0xff,
  0x42, 0xdc, 0xff, 0xff, 0x04, 0x00, 0x00, 0x00, 0x00, 0x01, 0x00, 0x00,
  0x22, 0x16, 0xff, 0xbd, 0x51, 0x8c, 0x95, 0x3c, 0x84, 0xd8, 0x4f, 0x3e,
  0x4a, 0x89, 0x1f, 0x3e, 0x6a, 0xcc, 0xc8, 0x3d, 0x64, 0x17, 0xd0, 0x3d,
  0xe4, 0x07, 0x90, 0x3e, 0xa8, 0x1b, 0x25, 0x3f, 0x28, 0x6a, 0x3d, 0xbe,
  0x00, 0x91, 0x01, 0xbb, 0xe8, 0xad, 0x18, 0x3d, 0x98, 0x04, 0x96, 0xbe,
  0xd5, 0x1a, 0x4c, 0x3d, 0xb0, 0x23, 0x8c, 0xbe, 0x5a, 0x11, 0x8e, 0xbe,
  0x98, 0xe2, 0xf1, 0x3d, 0x00, 0x85, 0xef, 0x3d, 0xa4, 0x9a, 0x08, 0x3a,
  0xdd, 0x9f, 0x8a, 0xbe, 0xce, 0xf6, 0xf9, 0x3b, 0xb2, 0xca, 0x42, 0x3d,
  0x60, 0x99, 0xdc, 0x3d, 0x6c, 0xbf, 0x4c, 0xbd, 0xbf, 0xb0, 0x1d, 0xbe,
  0xf7, 0x26, 0x02, 0x3e, 0xc3, 0x82, 0x0c, 0xbe, 0xd8, 0xcc, 0x39, 0xbe,
  0x56, 0xb7, 0xa7, 0x3d, 0x26, 0xbb, 0x64, 0xbe, 0x1b, 0x7b, 0x88, 0x3e,
  0xf6, 0x96, 0x08, 0xbe, 0xeb, 0x61, 0xf3, 0x3d, 0x14, 0x93, 0x29, 0x3f,
  0x04, 0x77, 0x7e, 0x3d, 0x44, 0x6c, 0x9f, 0xbd, 0x08, 0xbe, 0x38, 0x3d,
  0xf3, 0x54, 0x88, 0xbe, 0x99, 0x91, 0x0c, 0x3e, 0x14, 0xeb, 0x03, 0x3e,
  0xb0, 0xb1, 0x8c, 0x3e, 0x74, 0x27, 0x83, 0x3e, 0x28, 0x52, 0x93, 0x3e,
  0x6b, 0x73, 0x69, 0xbe, 0xbb, 0x46, 0x84, 0xbd, 0xf4, 0x5b, 0x4a, 0xbe,
  0x32, 0x8c, 0x96, 0x3e, 0x30, 0x0c, 0x58, 0x3d, 0xbe, 0xd4, 0x0a, 0x3e,
  0x2e, 0x53, 0x10, 0x3d, 0xd7, 0x1c, 0x8e, 0x3d, 0x62, 0x47, 0x7a, 0xbe,
  0x06, 0xd7, 0x3c, 0x3e, 0x5c, 0x5d, 0x40, 0xbe, 0xbc, 0x7d, 0x69, 0x3e,
  0x40, 0x74, 0xa6, 0xbb, 0x16, 0x1e, 0x63, 0x3e, 0xa5, 0xa4, 0x86, 0x3e,
  0xf4, 0xe6, 0x70, 0xbe, 0x68, 0xa7, 0x9d, 0x3d, 0x08, 0xac, 0xf6, 0x3d,
  0x9a, 0x02, 0xb5, 0xbd, 0xaa, 0x50, 0x80, 0xbe, 0x8c, 0xfe, 0xb6, 0xbd,
  0xc1, 0xf2, 0x9c, 0x3e, 0x4e, 0xdd, 0xff, 0xff, 0x04, 0x00, 0x00, 0x00,
  0x00, 0x20, 0x00, 0x00, 0xa9, 0x96, 0x1c, 0x3d, 0xcd, 0x47, 0xf9, 0x3d,
  0xa0, 0x23, 0x05, 0xbe, 0x5c, 0x49, 0xd6, 0xbd, 0x99, 0xe5, 0xfd, 0xbd,
  0x64, 0x3f, 0x38, 0xbe, 0xf8, 0x82, 0x36, 0x3e, 0xd4, 0xd1, 0x32, 0x3e,
  0x80, 0x9d, 0x81, 0x3b, 0xe8, 0xe8, 0x1e, 0xbe, 0x86, 0x3b, 0xb5, 0x3c,
  0xc0, 0x7e, 0xc1, 0xbc, 0x90, 0x5e, 0x4b, 0xbe, 0x76, 0xc9, 0x13, 0x3e,
  0x30, 0x77, 0x66, 0xbd, 0x90, 0xe2, 0xfc, 0xbd, 0x19, 0xcf, 0x38, 0x3e,
  0x00, 0x1e, 0xf8, 0xbc, 0x1e, 0x28, 0x91, 0x3d, 0x2a, 0xa2, 0x5f, 0x3e,
  0xe9, 0x82, 0x6f, 0xbe, 0xc0, 0x7d, 0xa9, 0xbd, 0xeb, 0x6f, 0x31, 0x3d,
  0xe0, 0xf7, 0x7e, 0xbe, 0xfd, 0xdc, 0x04, 0xbe, 0x30, 0x1c, 0x4c, 0x3e,
  0xb3, 0x4b, 0xd6, 0xbd, 0x58, 0x29, 0x5c, 0x3d, 0x71, 0x97, 0x4b, 0x3e,
  0x2e, 0x05, 0x40, 0xbe, 0x0f, 0x00, 0x87, 0xbe, 0x10, 0xbe, 0x9b, 0x3d,
  0xbd, 0xe4, 0x2a, 0xbe, 0xa2, 0x57, 0xdd, 0x3d, 0xc8, 0x15, 0xb4, 0x3d,
  0x43, 0x4c, 0x58, 0x3e, 0xb9, 0x6c, 0xd9, 0x3e, 0x8b, 0xfe, 0x71, 0xbe,
  0x38, 0x3d, 0x99, 0x3d, 0x50, 0xfa, 0x10, 0x3e, 0x60, 0x86, 0x40, 0xbe,
  0x0f, 0xa9, 0x6f, 0x3e, 0x9f, 0xb0, 0xeb, 0xbd, 0x7b, 0x9d, 0x02, 0x39,
  0x8d, 0x1f, 0x38, 0xbd, 0x35, 0xdb, 0x24, 0x3e, 0xc0, 0x13, 0x7c, 0xbe,
  0x1c, 0x01, 0x30, 0x3e, 0xa0, 0x38, 0x49, 0xbe, 0xd4, 0x1c, 0x23, 0x3e,
  0x01, 0x3b, 0x26, 0xbe, 0xc3, 0xcc, 0x3e, 0x3e, 0x1d, 0x10, 0x56, 0x3e,
  0x80, 0xbb, 0x2a, 0x3c, 0xc9, 0xc2, 0xd9, 0x3d, 0xd0, 0x1f, 0x80, 0x3d,
  0xf9, 0x5e, 0xbd, 0xbd, 0xc0, 0x14, 0x22, 0xbd, 0xc8, 0xc1, 0x60, 0xbd,
  0xe1, 0x03, 0xb6, 0x3c, 0xa7, 0xdb, 0x57, 0x3e, 0x16, 0x3e, 0x92, 0x3d,
  0xe9, 0x48, 0x5c, 0x3d, 0x74, 0x02, 0x31, 0xbe, 0xe8, 0x1b, 0x1a, 0x3e,
  0x40, 0x32, 0x5e, 0x3d, 0x28, 0x91, 0x67, 0xbe, 0x58, 0x08, 0xf8, 0x3d,
  0xb8, 0xb3, 0xa4, 0xbd, 0x50, 0xf2, 0x00, 0xbe, 0x04, 0x68, 0x6c, 0xbe,
  0x00, 0x3d, 0x56, 0x3c, 0x2c, 0x12, 0x32, 0x3e, 0xdc, 0xbd, 0x3d, 0xbe,
  0x50, 0x49, 0x96, 0x3d, 0x50, 0xaa, 0x1f, 0x3d, 0xe4, 0xab, 0x31, 0x3e,
  0xcc, 0xa5, 0x69, 0xbe, 0x1c, 0x9b, 0x5d, 0xbe, 0xe0, 0x33, 0x2c, 0xbe,
  0x58, 0x51, 0x64, 0xbe, 0x60, 0xac, 0x3f, 0xbe, 0xdc, 0xe5, 0x3d, 0xbe,
  0xdc, 0xb9, 0x1a, 0x3e, 0x10, 0x8e, 0x2c, 0xbd, 0x80, 0xab, 0x68, 0x3c,
  0xe8, 0x79, 0x49, 0xbe, 0xc8, 0x5c, 0xde, 0xbd, 0x64, 0xbf, 0x2d, 0xbe,
  0x98, 0xd4, 0x5b, 0x3e, 0x70, 0xb2, 0x4a, 0xbd, 0xc0, 0xca, 0x9f, 0xbc,
  0x30, 0x47, 0x3e, 0xbe, 0xd8, 0x45, 0x82, 0xbd, 0x10, 0x49, 0xff, 0x3d,
  0xd8, 0x8a, 0x14, 0xbe, 0xac, 0x87, 0xff, 0x3c, 0x4a, 0xd3, 0x77, 0x3e,
  0x20, 0x19, 0x40, 0x3e, 0xba, 0xad, 0xf2, 0xbd, 0x82, 0xce, 0x0b, 0x3f,
  0xf9, 0x9b, 0x37, 0xbd, 0xc0, 0x4b, 0xbf, 0x3c, 0x28, 0x5a, 0xf4, 0x3d,
  0xa8, 0x3c, 0xf7, 0x3d, 0xa4, 0x71, 0x22, 0xbe, 0x63, 0xfd, 0x80, 0x3e,
  0x24, 0x00, 0x31, 0xbe, 0x84, 0x9c, 0xeb, 0xbc, 0x16, 0x3c, 0x7f, 0x3e,
  0x30, 0x4a, 0x74, 0xbe, 0x08, 0xd6, 0xa2, 0xbd, 0x10, 0x52, 0x0d, 0x3e,
  0xb0, 0x05, 0x95, 0xbd, 0x72, 0xee, 0xb7, 0x3c, 0x4b, 0xcf, 0x4c, 0xbe,
  0x47, 0xe5, 0xee, 0x3d, 0xa8, 0x89, 0x00, 0x3e, 0x3d, 0x36, 0x84, 0x3e,
  0xec, 0xd2, 0x45, 0xbe, 0x32, 0xa6, 0x12, 0x3d, 0xc0, 0x8e, 0x19, 0xbd,
  0x33, 0x4c, 0xf8, 0x3c, 0x3c, 0x4f, 0x51, 0xbe, 0x26, 0xd0, 0x1d, 0x3e,
  0x9d, 0x8f, 0x06, 0x3f, 0x5f, 0x53, 0x4f, 0xbe, 0x50, 0x03, 0xc5, 0xbd,
  0x11, 0x69, 0x21, 0x3e, 0xd6, 0xaf, 0x47, 0x3e, 0x68, 0xac, 0xfb, 0x3d,
  0x0e, 0xba, 0x10, 0x3e, 0x0a, 0x4d, 0x03, 0x3e, 0xe9, 0xb6, 0x8c, 0xbd,
  0x10, 0x81, 0xa8, 0x3d, 0x00, 0x17, 0x92, 0xbd, 0xfc, 0x59, 0x57, 0x3e,
  0x49, 0x28, 0x3d, 0xbd, 0x7b, 0x50, 0xeb, 0xbc, 0x4b, 0x02, 0xaa, 0xbd,
  0x57, 0x88, 0xd8, 0x3d, 0x65, 0x71, 0x26, 0x3e, 0xa0, 0x59, 0xa0, 0xbd,
  0xf0, 0x04, 0x8c, 0xbd, 0xda, 0xf1, 0x49, 0x3e, 0x00, 0xf8, 0xd6, 0xbd,
  0xcd, 0xe5, 0x20, 0xbd, 0xe8, 0xe0, 0x1b, 0xbe, 0xc8, 0xdc, 0x32, 0x3d,
  0x4c, 0xd4, 0x41, 0x3e, 0xfa, 0x8d, 0x92, 0x3c, 0x70, 0xa7, 0x8d, 0xbd,
  0xd7, 0x31, 0x59, 0x3e, 0x00, 0xfb, 0xd4, 0x3d, 0x5a, 0x65, 0x76, 0x3e,
  0x61, 0xd2, 0x13, 0x3d, 0xa9, 0x1a, 0x63, 0xbc, 0xfd, 0x56, 0xd7, 0x3d,
  0xd6, 0x9e, 0x48, 0x3e, 0xd8, 0x36, 0x86, 0xbd, 0x30, 0x86, 0xba, 0xbd,
  0xb8, 0x78, 0x51, 0x3e, 0xd4, 0xf3, 0x3e, 0xbe, 0xbc, 0x46, 0x67, 0xbe,
  0x88, 0x8c, 0x06, 0xbe, 0x70, 0xdf, 0xf0, 0x3d, 0xb0, 0x21, 0x5f, 0x3d,
  0xbc, 0xfa, 0x44, 0xbe, 0xc0, 0x3a, 0xe8, 0x3d, 0xec, 0x6f, 0x5c, 0xbe,
  0xc0, 0x3c, 0x55, 0xbc, 0x48, 0x29, 0x8a, 0x3d, 0x00, 0x0a, 0x17, 0x3c,
  0x04, 0x42, 0x0d, 0x3e, 0x98, 0x6c, 0x16, 0xbe, 0xe8, 0x63, 0xf7, 0x3d,
  0xec, 0xed, 0x1b, 0xbe, 0x88, 0x7f, 0x9b, 0x3d, 0x30, 0x40, 0x6d, 0x3e,
  0xe8, 0x22, 0x45, 0xbe, 0x40, 0xd9, 0x43, 0x3e, 0x00, 0x8a, 0x05, 0x3c,
  0xc4, 0xba, 0x43, 0xbe, 0x08, 0x1a, 0x38, 0x3e, 0xf0, 0x27, 0x08, 0xbe,
  0xc4, 0xec, 0x2c, 0xbe, 0x90, 0x99, 0xc7, 0xbd, 0x80, 0x97, 0x3f, 0xbe,
  0xc4, 0x6f, 0x30, 0xbe, 0x10, 0x24, 0x32, 0xbd, 0x2c, 0xc3, 0x12, 0xbe,
  0xb8, 0x1b, 0x31, 0x3e, 0xe4, 0xda, 0x45, 0x3e, 0xc0, 0x28, 0x6a, 0xbe,
  0x88, 0xc9, 0x00, 0xbe, 0x14, 0x67, 0x2a, 0x3e, 0xc0, 0xf0, 0x17, 0xbd,
  0x08, 0x65, 0x56, 0xbe, 0x40, 0x63, 0xc4, 0xbd, 0xb0, 0x8f, 0xe9, 0xbd,
  0xf8, 0xdb, 0x0f, 0x3e, 0xc8, 0x1b, 0x63, 0xbe, 0x80, 0x4f, 0x8a, 0xbc,
  0x24, 0x47, 0x67, 0x3e, 0xe8, 0x92, 0x06, 0xbe, 0x88, 0x9c, 0xe6, 0x3d,
  0xd8, 0x87, 0xd0, 0xbd, 0xa0, 0x5d, 0x3a, 0xbe, 0x80, 0xdc, 0x7e, 0xbc,
  0xc8, 0xfe, 0x5f, 0xbe, 0x50, 0xb2, 0xf6, 0x3d, 0x00, 0x3d, 0x90, 0xbd,
  0xb0, 0x67, 0x75, 0x3d, 0x40, 0x51, 0x79, 0xbd, 0xc0, 0xef, 0x97, 0x3d,
  0xa0, 0x26, 0x61, 0xbe, 0x70, 0x5e, 0xd9, 0xbd, 0xa8, 0x82, 0x7d, 0xbe,
  0xa0, 0x5b, 0xf9, 0xbd, 0x80, 0x2a, 0x6c, 0xbe, 0x00, 0xf0, 0x22, 0xbb,
  0xa0, 0x48, 0x07, 0xbe, 0x70, 0xac, 0x0b, 0x3e, 0xc0, 0xa6, 0x47, 0xbc,
  0xcf, 0xe1, 0x15, 0xbe, 0xb7, 0x97, 0x6e, 0x3d, 0x9c, 0xb7, 0x75, 0x3e,
  0x9d, 0xe6, 0x9c, 0x3d, 0xd9, 0x27, 0x20, 0x3f, 0xbb, 0x0d, 0xd1, 0xbd,
  0x98, 0xe8, 0x31, 0x3e, 0x60, 0xe0, 0xa8, 0x3d, 0x40, 0xb1, 0x8e, 0xbc,
  0x49, 0x13, 0x08, 0x3e, 0xc0, 0xe4, 0x67, 0xbe, 0xcd, 0xc4, 0x0c, 0xbe,
  0x09, 0x69, 0x89, 0xbe, 0x5f, 0xfc, 0x36, 0x3e, 0x50, 0x34, 0xe0, 0xbd,
  0x30, 0xb6, 0x98, 0x3d, 0x7f, 0xac, 0x7c, 0xbd, 0xa8, 0x39, 0x43, 0x3e,
  0x90, 0x4d, 0x57, 0xbe, 0x43, 0x3e, 0xbf, 0xbd, 0xf3, 0xfc, 0x61, 0xbe,
  0x54, 0xb7, 0x46, 0x3e, 0xa3, 0x5e, 0x9a, 0x3d, 0x88, 0xa6, 0x48, 0xbe,
  0x51, 0x7f, 0xbd, 0xbd, 0x40, 0xf4, 0x61, 0x3e, 0xd7, 0x31, 0xa9, 0x3e,
  0x0f, 0x5c, 0x78, 0x3e, 0xfd, 0x93, 0xc4, 0xbe, 0x59, 0x0b, 0x08, 0x3e,
  0x31, 0x93, 0x78, 0xbd, 0x5c, 0x33, 0x64, 0xbe, 0x78, 0xf1, 0xfb, 0x3d,
  0x65, 0xbc, 0x56, 0xbd, 0x78, 0x0a, 0x80, 0xbd, 0x5c, 0x83, 0x61, 0x3c,
  0x00, 0xd9, 0x09, 0x3c, 0x50, 0xb7, 0x44, 0xbb, 0x00, 0x80, 0x6e, 0x3d,
  0x20, 0x1a, 0xe9, 0xbc, 0xd4, 0x4f, 0x29, 0x3e, 0x20, 0xc2, 0xc6, 0x3c,
  0x9f, 0xe0, 0x0b, 0xbe, 0x1c, 0x9d, 0x56, 0x3e, 0x71, 0x86, 0xf9, 0x3c,
  0xbe, 0x39, 0x07, 0xbe, 0x80, 0x9e, 0x65, 0xbd, 0xc0, 0x56, 0x31, 0xbc,
  0xee, 0x3e, 0xcf, 0xbc, 0xf8, 0xbd, 0x6b, 0x3e, 0x95, 0xe1, 0x10, 0x3d,
  0xb7, 0x3a, 0xf9, 0xbd, 0xf4, 0x00, 0xed, 0xbd, 0x88, 0x32, 0xbb, 0xbd,
  0x8f, 0xc9, 0x39, 0xbe, 0xe8, 0xc7, 0x6f, 0x3e, 0xaf, 0xc6, 0x61, 0x3e,
  0x34, 0xbc, 0x7e, 0x3e, 0x29, 0x41, 0x92, 0xbe, 0x2e, 0xbc, 0x85, 0xbd,
  0xcc, 0xf7, 0xe9, 0x3c, 0xd0, 0x76, 0xeb, 0xbd, 0x4e, 0x9e, 0xbe, 0xbd,
  0x78, 0x68, 0x23, 0xbe, 0x10, 0xf1, 0x09, 0x3d, 0x74, 0x84, 0x77, 0xbe,
  0xe8, 0x9e, 0x25, 0xbe, 0xbc, 0xba, 0x3f, 0xbe, 0x60, 0x38, 0x79, 0x3e,
  0xc0, 0x8a, 0x9a, 0xbc, 0xd8, 0x33, 0xba, 0xbd, 0x20, 0xb5, 0xd1, 0x3c,
  0x80, 0x73, 0x19, 0x3d, 0x74, 0xf5, 0x13, 0x3e, 0x80, 0xf2, 0xc1, 0xbc,
  0x20, 0xb1, 0x0c, 0xbd, 0xd8, 0x12, 0x07, 0xbe, 0x48, 0xe4, 0x7f, 0xbe,
  0x6c, 0x53, 0x27, 0xbe, 0xf8, 0x3a, 0xa9, 0xbd, 0xdc, 0x63, 0x0c, 0x3e,
  0xf8, 0x0f, 0x87, 0xbd, 0xc8, 0xee, 0xf0, 0xbd, 0x40, 0x79, 0x3e, 0xbc,
  0x60, 0x7f, 0xd8, 0xbd, 0xc0, 0xce, 0x4c, 0x3c, 0xfc, 0xa6, 0x27, 0xbe,
  0x28, 0x8e, 0x9b, 0x3d, 0x40, 0x18, 0x00, 0xbe, 0xf8, 0x20, 0xa0, 0x3d,
  0xa0, 0x6a, 0x58, 0xbd, 0x80, 0xac, 0x80, 0xbb, 0x80, 0x90, 0xb3, 0x3b,
  0xe0, 0x84, 0x36, 0x3e, 0xe4, 0xcb, 0x5f, 0xbe, 0xe0, 0xd2, 0x8d, 0xbd,
  0x80, 0x50, 0xa4, 0x3d, 0xc0, 0x2b, 0xea, 0x3c, 0x00, 0xd8, 0xa9, 0x3d,
  0xe0, 0x2c, 0x50, 0xbe, 0x10, 0xae, 0x6b, 0x3d, 0x18, 0x60, 0xf4, 0x3d,
  0x38, 0x52, 0x52, 0x3e, 0xe8, 0x29, 0xa7, 0xbd, 0x18, 0x43, 0x3f, 0xbe,
  0x68, 0x53, 0x4a, 0xbe, 0xb0, 0x4e, 0x00, 0x3e, 0x4c, 0x4b, 0x1a, 0x3e,
  0xd0, 0xf8, 0x0b, 0x3d, 0xbc, 0x75, 0x48, 0x3e, 0xb0, 0x61, 0x7e, 0xbe,
  0x30, 0xb2, 0x16, 0xbd, 0x58, 0xf0, 0x54, 0x3e, 0x8c, 0xa7, 0x15, 0xbe,
  0x40, 0xc5, 0x95, 0xbc, 0x70, 0xd0, 0x37, 0xbd, 0x60, 0xb4, 0x6e, 0xbd,
  0x78, 0x27, 0x89, 0x3d, 0x58, 0x48, 0x03, 0x3e, 0x14, 0xc2, 0x10, 0xbe,
  0x98, 0x05, 0x38, 0xbe, 0x10, 0x20, 0x77, 0x3d, 0x6c, 0x65, 0x23, 0xbe,
  0x58, 0xff, 0x2e, 0xbe, 0xc8, 0x0c, 0x88, 0x3d, 0x00, 0x03, 0xb3, 0x3b,
  0xa4, 0xa5, 0x5e, 0xbe, 0x88, 0xb2, 0x50, 0xbe, 0x7f, 0x74, 0x04, 0xbe,
  0x2c, 0x8d, 0x46, 0xbd, 0x30, 0x8c, 0x7b, 0x3e, 0x16, 0xa8, 0xb0, 0x3d,
  0x32, 0x34, 0x41, 0xbe, 0xb6, 0xf9, 0xe5, 0xbc, 0x90, 0x17, 0x41, 0xbe,
  0x20, 0xa6, 0xd4, 0xbd, 0xc4, 0xb7, 0x6a, 0x3e, 0xce, 0x64, 0x6c, 0x3e,
  0xd9, 0xfa, 0x27, 0xbe, 0xf0, 0x5f, 0x20, 0x3d, 0x00, 0xfa, 0x8e, 0xbd,
  0x91, 0x32, 0xc9, 0xbd, 0x10, 0x86, 0x20, 0x3e, 0x6c, 0x83, 0x71, 0xbe,
  0x06, 0x9c, 0x58, 0xbe, 0xfc, 0xff, 0x5e, 0xbe, 0xc6, 0x4e, 0x1c, 0xbe,
  0x8a, 0xdf, 0x4b, 0xbd, 0xe1, 0x97, 0x4d, 0x3e, 0x24, 0x44, 0x21, 0x3e,
  0x63, 0x9c, 0x3d, 0x3c, 0xa0, 0x05, 0x87, 0x3d, 0x15, 0x21, 0x01, 0xbe,
  0x00, 0x04, 0xb0, 0x3a, 0x09, 0x94, 0x57, 0x3d, 0xeb, 0xd0, 0x74, 0x3b,
  0x60, 0xe7, 0x10, 0xbd, 0x67, 0x2b, 0x69, 0x3e, 0x98, 0x60, 0x4e, 0x3e,
  0x9c, 0x04, 0x47, 0xbe, 0x17, 0x9c, 0x6d, 0xbe, 0xd8, 0x39, 0x27, 0x3e,
  0xc0, 0x06, 0x03, 0xbe, 0xe7, 0x14, 0x85, 0x3d, 0xec, 0xb4, 0x8e, 0x3e,
  0x2e, 0x84, 0x86, 0x3d, 0xe0, 0x15, 0x21, 0xbe, 0xa0, 0x0e, 0x95, 0xbd,
  0xd8, 0x61, 0x16, 0x3e, 0x9b, 0x89, 0x0b, 0x3e, 0x62, 0x11, 0x76, 0x3e,
  0x71, 0xfa, 0x29, 0xbe, 0xc8, 0xfe, 0x1c, 0xbe, 0x7a, 0xa6, 0xd0, 0xbc,
  0x80, 0xc0, 0x4c, 0xbe, 0x38, 0x84, 0xde, 0xbd, 0x77, 0x34, 0x94, 0x3d,
  0x80, 0xa6, 0xd4, 0x3b, 0xb2, 0x1f, 0x88, 0x3c, 0xa8, 0x27, 0x18, 0xbe,
  0xb2, 0xb9, 0x7d, 0xbe, 0xb0, 0x36, 0x81, 0xbd, 0xf8, 0x77, 0x28, 0x3e,
  0x80, 0xd8, 0xdd, 0xbd, 0x82, 0x36, 0x55, 0x3e, 0xf0, 0xde, 0x34, 0xbe,
  0xc3, 0x2c, 0xd8, 0x3d, 0x5c, 0x91, 0x3a, 0x3e, 0x31, 0xb7, 0x3c, 0x3e,
  0xec, 0x34, 0xbd, 0x3d, 0x89, 0xb9, 0xed, 0xbd, 0x48, 0x7a, 0x6f, 0xbe,
  0x12, 0xa9, 0x87, 0x3d, 0xac, 0x2a, 0x5f, 0x3e, 0xf8, 0x5a, 0x9c, 0xbd,
  0x82, 0x3a, 0x06, 0xbe, 0x54, 0xe2, 0x85, 0xbe, 0x14, 0xa9, 0x20, 0x3e,
  0x00, 0x53, 0x40, 0xbc, 0x88, 0x4f, 0xb0, 0x3d, 0xc0, 0x77, 0x88, 0x3d,
  0xc8, 0x03, 0xa3, 0xbd, 0x08, 0x64, 0xff, 0x3d, 0xda, 0x99, 0x3e, 0xbe,
  0x41, 0x56, 0x82, 0xbe, 0x25, 0x41, 0x9b, 0x3c, 0x10, 0xce, 0x32, 0xbe,
  0xd8, 0xae, 0x44, 0xbe, 0xe1, 0x41, 0x63, 0x3e, 0xe8, 0x36, 0x27, 0xbe,
  0x3c, 0x99, 0x0e, 0xbe, 0x99, 0x93, 0xe8, 0xbd, 0x2b, 0x5b, 0x50, 0x3e,
  0x90, 0xf3, 0x2c, 0x3e, 0xc8, 0x66, 0x2b, 0xbe, 0xfc, 0x4f, 0x36, 0x3e,
  0xa3, 0xaf, 0xe0, 0x3d, 0x48, 0x20, 0x3d, 0xbe, 0x82, 0x2b, 0x0b, 0x3e,
  0xd0, 0x1d, 0x4f, 0x3e, 0xae, 0x87, 0x84, 0xbe, 0xbc, 0x5d, 0x4b, 0xbe,
  0xeb, 0x6a, 0xb9, 0xbd, 0x40, 0xe1, 0xbf, 0xbc, 0xe8, 0xd5, 0xfc, 0xbd,
  0xc0, 0x38, 0xbd, 0x3c, 0x10, 0x05, 0x3f, 0x3d, 0x00, 0x99, 0xee, 0x3b,
  0xb0, 0x8b, 0x51, 0x3d, 0x28, 0xee, 0x23, 0x3e, 0xd8, 0x27, 0x76, 0xbe,
  0x60, 0x57, 0xab, 0x3d, 0x80, 0xb5, 0xc4, 0xbb, 0xc4, 0xb0, 0x49, 0xbe,
  0x70, 0x0b, 0xf0, 0xbd, 0xc0, 0xf7, 0x1b, 0xbc, 0xb0, 0x7c, 0x2a, 0xbd,
  0xf4, 0x75, 0x52, 0xbe, 0x00, 0xe3, 0xdb, 0x3c, 0x00, 0xb6, 0x04, 0x3e,
  0x80, 0x75, 0x6e, 0xbc, 0x40, 0xbd, 0x83, 0x3c, 0xe0, 0xef, 0xac, 0x3d,
  0x10, 0x57, 0x29, 0xbe, 0xa0, 0xed, 0xf0, 0x3d, 0x28, 0x98, 0x1f, 0x3e,
  0x00, 0x44, 0xdb, 0xbb, 0x00, 0x97, 0x44, 0xbb, 0x00, 0xa3, 0x8a, 0xbd,
  0xc0, 0xa8, 0xb3, 0xbd, 0xb8, 0xae, 0x03, 0x3e, 0xc4, 0xfe, 0x4e, 0xbe,
  0x6c, 0x53, 0x08, 0xbe, 0x80, 0xfc, 0xcc, 0xbc, 0x80, 0xa2, 0x7c, 0x3c,
  0x44, 0x5c, 0x29, 0xbe, 0xa8, 0xa7, 0x14, 0xbd, 0x81, 0x75, 0xdc, 0xbc,
  0x84, 0x63, 0x75, 0xbe, 0x68, 0x6b, 0x32, 0x3e, 0xbb, 0x56, 0xc3, 0x3e,
  0x79, 0x8e, 0x38, 0x3e, 0xc8, 0xe4, 0x05, 0x3e, 0x2c, 0x07, 0x29, 0xbe,
  0x48, 0xa9, 0xe3, 0xbd, 0xf6, 0xa6, 0xcb, 0x3c, 0xd2, 0xc8, 0x92, 0x3d,
  0xec, 0x27, 0xbc, 0x3d, 0x66, 0x26, 0x0b, 0x3e, 0xde, 0xaf, 0x7f, 0x3e,
  0xb4, 0xc6, 0x20, 0xbe, 0xcc, 0xdc, 0x7a, 0xbe, 0x85, 0x08, 0x84, 0x3e,
  0x40, 0x51, 0x48, 0x3e, 0x45, 0x85, 0x75, 0x3e, 0xe8, 0x0b, 0x6f, 0x3e,
  0xb2, 0x1c, 0xe2, 0xbd, 0xd0, 0x0b, 0x55, 0xbd, 0x10, 0xc7, 0x80, 0x3e,
  0xbc, 0xcb, 0x14, 0x3e, 0xee, 0xb2, 0x47, 0xbd, 0x30, 0xb5, 0x94, 0xbd,
  0x9c, 0x89, 0x0d, 0xbe, 0x50, 0xbc, 0x6f, 0x3e, 0xa8, 0x64, 0x6f, 0x3c,
  0xcf, 0xae, 0x69, 0x3d, 0x45, 0x6b, 0x35, 0x3d, 0xa0, 0xb8, 0xc5, 0x3d,
  0x06, 0x3b, 0x1c, 0x3e, 0x46, 0x63, 0x6c, 0xbe, 0x68, 0x31, 0xe6, 0xbd,
  0xc4, 0xbf, 0x1a, 0xbe, 0x56, 0x3c, 0x2a, 0x3e, 0x8c, 0xff, 0x05, 0xbe,
  0x20, 0x8c, 0x83, 0x3d, 0x5c, 0x98, 0x20, 0x3e, 0xf8, 0x2c, 0xe9, 0x3d,
  0x64, 0xe8, 0x02, 0x3d, 0xe7, 0x5c, 0x3f, 0x3e, 0x9c, 0x5d, 0xd5, 0xbd,
  0x7d, 0xd5, 0xf3, 0x3d, 0x7f, 0x7e, 0x47, 0x3e, 0x48, 0x78, 0x63, 0x3e,
  0x20, 0x9e, 0x97, 0xbd, 0x90, 0x06, 0xb6, 0xbd, 0xe0, 0xca, 0x42, 0x3e,
  0xe2, 0xd3, 0x34, 0x3d, 0x32, 0xb2, 0x56, 0xbe, 0xcc, 0x0f, 0x8d, 0x3d,
  0x74, 0xa8, 0x0d, 0xbe, 0x18, 0xb3, 0x0f, 0xbe, 0x78, 0x91, 0x58, 0xbe,
  0x7d, 0x18, 0x7e, 0x3d, 0xa8, 0x02, 0x50, 0xbe, 0x83, 0x53, 0x16, 0x3e,
  0xd2, 0x00, 0x50, 0x3e, 0x48, 0xca, 0x5c, 0x3e, 0x0e, 0x55, 0xed, 0x3e,
  0xc9, 0xa4, 0xeb, 0xbd, 0x30, 0x60, 0xde, 0xbd, 0x7f, 0x8d, 0xd2, 0x3d,
  0x3e, 0x74, 0xe5, 0x3d, 0x14, 0x15, 0x53, 0x3e, 0x38, 0xe4, 0x35, 0x3d,
  0x7c, 0x72, 0xfd, 0xbc, 0xba, 0xbb, 0x60, 0xbe, 0x6c, 0x3b, 0x7e, 0x3e,
  0x90, 0xdd, 0xbb, 0xbd, 0x40, 0x02, 0x33, 0xbd, 0x2f, 0x73, 0x81, 0xbc,
  0xcc, 0x23, 0x6b, 0xbc, 0xac, 0x4e, 0x2f, 0xbe, 0x89, 0xff, 0x7b, 0xbe,
  0xa5, 0xcc, 0xbe, 0xbd, 0xc0, 0x15, 0xc2, 0x3d, 0x5c, 0xbd, 0x23, 0x3e,
  0xc4, 0x2d, 0x35, 0x3e, 0x78, 0x85, 0x03, 0x3e, 0xf0, 0x88, 0x4a, 0x3e,
  0x70, 0xcf, 0xb3, 0x3d, 0xd2, 0x58, 0x53, 0xbe, 0x60, 0x26, 0x0a, 0x3d,
  0x71, 0x3e, 0xd2, 0xbd, 0x40, 0xf0, 0x2a, 0xbc, 0xc4, 0x3f, 0x64, 0x3c,
  0xc0, 0x87, 0x4e, 0x3d, 0xfd, 0xc8, 0x0c, 0xbe, 0x44, 0x30, 0x30, 0xbe,
  0xd2, 0xad, 0x1a, 0x3e, 0x47, 0x48, 0xf1, 0x3c, 0x86, 0x20, 0x71, 0x3d,
  0x70, 0xde, 0x52, 0xbd, 0x1e, 0xae, 0x1e, 0x3e, 0x55, 0x56, 0x7b, 0xbe,
  0xa0, 0x99, 0x89, 0xbd, 0xdf, 0x2b, 0x21, 0xbe, 0x5b, 0x80, 0x6c, 0xbd,
  0xb3, 0xa0, 0xfc, 0x3d, 0xf0, 0xef, 0x2c, 0xbd, 0x70, 0x74, 0x48, 0x3d,
  0x60, 0x7e, 0xa0, 0x3d, 0xae, 0x16, 0x32, 0xbe, 0x2c, 0xf7, 0x25, 0xbe,
  0x69, 0x73, 0x33, 0x3e, 0x8e, 0x75, 0x6c, 0xbe, 0x75, 0xf9, 0x61, 0x3e,
  0x30, 0x8b, 0x14, 0xbe, 0xe0, 0x6d, 0xc5, 0xbd, 0xb1, 0xad, 0xa3, 0x3c,
  0x94, 0x93, 0x4d, 0x3e, 0xf8, 0x59, 0x5c, 0x3e, 0x0f, 0x32, 0xda, 0x3c,
  0x4c, 0x2e, 0x84, 0x3d, 0xb8, 0x46, 0x58, 0x3e, 0x89, 0x91, 0x3e, 0x3e,
  0x14, 0x5a, 0x70, 0xbe, 0x3d, 0x8e, 0x9a, 0xbd, 0x00, 0xee, 0x9b, 0xbc,
  0x68, 0xe5, 0xfa, 0x3d, 0x69, 0xcc, 0xd3, 0x3c, 0xf5, 0x5f, 0x1d, 0xbe,
  0xc3, 0x9b, 0x46, 0x3d, 0x03, 0x80, 0x0e, 0x3e, 0x28, 0x83, 0x06, 0xbe,
  0x3d, 0x7e, 0x82, 0xbe, 0x03, 0x8b, 0x1a, 0x3d, 0xc0, 0x94, 0x8f, 0xbc,
  0x11, 0x5a, 0x7e, 0x3d, 0xf2, 0xf2, 0x52, 0x3d, 0x66, 0x12, 0x4c, 0x3d,
  0x40, 0x7e, 0x8f, 0x3d, 0x90, 0x78, 0xf6, 0xbd, 0xb0, 0x9b, 0xf3, 0xbd,
  0x8f, 0x00, 0x2a, 0x3e, 0x71, 0x60, 0x44, 0xbe, 0xb8, 0xed, 0xdf, 0x3d,
  0x1e, 0xc5, 0x45, 0xbd, 0x7e, 0x95, 0x3c, 0xbb, 0x80, 0x14, 0x3f, 0xbe,
  0xc4, 0xf2, 0x3d, 0x3e, 0xe6, 0x36, 0xbd, 0xbd, 0x20, 0x74, 0x43, 0x3e,
  0x51, 0xae, 0x17, 0x3e, 0xf5, 0x71, 0x4e, 0xbd, 0xdc, 0x48, 0x7d, 0xbe,
  0xd8, 0x52, 0xf2, 0xbd, 0x29, 0xc8, 0x5a, 0xbe, 0x40, 0xed, 0xe4, 0xbd,
  0xf0, 0xd7, 0x6a, 0x3e, 0x6c, 0x40, 0x1d, 0xbe, 0x15, 0xbe, 0x02, 0x3d,
  0xb6, 0xfa, 0xe3, 0x3b, 0x2c, 0x55, 0x17, 0xbe, 0x21, 0x69, 0x1c, 0xbe,
  0xed, 0xc6, 0xb1, 0x3d, 0xb0, 0xdf, 0x3c, 0x3d, 0xc6, 0x0b, 0x2b, 0x3e,
  0x8b, 0xb6, 0x80, 0x3e, 0x40, 0x95, 0x31, 0x3c, 0x1f, 0x4f, 0x07, 0xbd,
  0x81, 0xeb, 0x84, 0x3e, 0x3e, 0xd8, 0x0b, 0xbe, 0x18, 0xe8, 0x50, 0xbe,
  0x2c, 0x85, 0x39, 0x3e, 0x00, 0xea, 0xf0, 0xbd, 0x24, 0xad, 0x54, 0x3e,
  0xc9, 0xe9, 0xb8, 0x3d, 0xb6, 0x6a, 0x37, 0xbe, 0x20, 0xf9, 0x6f, 0x3e,
  0xda, 0xe8, 0x1e, 0xbe, 0x00, 0xdf, 0xd2, 0xbb, 0x48, 0xfb, 0x78, 0x3e,
  0x1e, 0x97, 0x52, 0xbe, 0xc0, 0x49, 0x39, 0x3e, 0x40, 0x6b, 0x08, 0x3d,
  0xf0, 0x73, 0x40, 0x3e, 0xfa, 0xec, 0xab, 0x3d, 0xe8, 0x16, 0x51, 0x3e,
  0x5f, 0xa7, 0x89, 0x3a, 0xf4, 0x46, 0x2a, 0x3e, 0x87, 0xd3, 0xff, 0x3c,
  0xa8, 0x4d, 0x53, 0x3e, 0xe3, 0x98, 0xbb, 0xbd, 0x25, 0x91, 0x17, 0xbe,
  0x70, 0x11, 0x5f, 0xbe, 0x8c, 0xa3, 0x55, 0x3e, 0x10, 0x20, 0xf3, 0xbd,
  0x04, 0x5d, 0x0d, 0x3e, 0xc9, 0xd0, 0xa9, 0x3d, 0x04, 0xc7, 0x15, 0x3d,
  0xe0, 0x11, 0x4e, 0xbd, 0x5d, 0x81, 0x3e, 0xbd, 0xad, 0x34, 0x8d, 0x3e,
  0xdf, 0xfe, 0x80, 0x3e, 0x80, 0x04, 0x48, 0x3e, 0x74, 0xb6, 0x58, 0xbe,
  0x00, 0xda, 0xdf, 0x3d, 0x0e, 0x1f, 0x24, 0x3d, 0xeb, 0x6f, 0x32, 0xbe,
  0xf4, 0xc2, 0x15, 0xbe, 0x89, 0x5c, 0x21, 0x3e, 0x8e, 0x2b, 0xbd, 0x3d,
  0x64, 0x0b, 0x32, 0x3e, 0x5c, 0x6b, 0x30, 0xbe, 0xd2, 0xb7, 0x13, 0x3e,
  0xc4, 0x63, 0x2d, 0x3e, 0xf4, 0xd2, 0x32, 0xbb, 0x93, 0x34, 0xb8, 0x3d,
  0xe3, 0x7c, 0x64, 0x3e, 0x60, 0xca, 0xb9, 0xbd, 0xae, 0xc2, 0xb0, 0x3c,
  0x54, 0x4c, 0x5f, 0x3e, 0x58, 0x5e, 0x03, 0xba, 0x68, 0xc9, 0x1c, 0x3e,
  0x1f, 0xae, 0x36, 0x3c, 0x08, 0xd0, 0x83, 0xba, 0x43, 0x61, 0xa5, 0x3d,
  0xb0, 0x97, 0x89, 0x3e, 0x13, 0x2b, 0xb9, 0xbc, 0x6c, 0x0f, 0x65, 0xbe,
  0xcd, 0x0f, 0xa1, 0x3d, 0x95, 0xc0, 0xd0, 0x3d, 0xd0, 0xa8, 0x2c, 0x3d,
  0xe9, 0xe2, 0x0a, 0x3e, 0xb7, 0xa1, 0xb8, 0xbe, 0x3d, 0xa5, 0x94, 0xbe,
  0xf8, 0x06, 0x43, 0xbe, 0x40, 0xf4, 0x91, 0x3c, 0x80, 0xc2, 0x8b, 0xbc,
  0x84, 0x5d, 0x49, 0xbe, 0x26, 0x25, 0xdd, 0x3d, 0x77, 0xf9, 0x46, 0x3e,
  0xf1, 0x80, 0x40, 0x3e, 0xac, 0x2b, 0x0c, 0x3e, 0x28, 0x2b, 0xb3, 0xbd,
  0xb0, 0x34, 0xea, 0x3d, 0xf4, 0x76, 0x4c, 0xbe, 0xa0, 0xd7, 0x0c, 0x3e,
  0xbb, 0x81, 0x82, 0x3d, 0x05, 0x4d, 0xb6, 0xbb, 0xcd, 0x97, 0x1a, 0xbe,
  0x18, 0xb2, 0x5c, 0xbe, 0xcd, 0xf6, 0xff, 0x3d, 0x88, 0x34, 0xa6, 0x3d,
  0x5c, 0xac, 0x1a, 0x3e, 0xa0, 0xcb, 0xf6, 0xbc, 0x46, 0x48, 0x15, 0x3d,
  0x59, 0x41, 0xbd, 0x3d, 0xe1, 0x48, 0x27, 0xbc, 0x71, 0x16, 0x20, 0xbe,
  0xa3, 0xeb, 0x2b, 0x3e, 0x40, 0x4d, 0x22, 0x3e, 0xdc, 0x04, 0x60, 0x3e,
  0x40, 0xd6, 0xce, 0xbd, 0x58, 0xc7, 0x2c, 0x3e, 0x90, 0x25, 0x26, 0xbd,
  0x78, 0xb8, 0x2c, 0xbe, 0x74, 0x43, 0x0b, 0x3e, 0x60, 0xe6, 0x45, 0x3d,
  0x34, 0xf3, 0x72, 0x3e, 0x48, 0xc6, 0x59, 0x3e, 0x80, 0xc7, 0x2b, 0xbd,
  0x9c, 0x7a, 0x1b, 0x3e, 0xcc, 0xb2, 0x42, 0xbe, 0x20, 0xea, 0x9b, 0xbd,
  0x78, 0xac, 0xdd, 0xbd, 0x4c, 0x90, 0x7a, 0xbe, 0xdc, 0x72, 0x07, 0x3e,
  0x38, 0xf8, 0x82, 0xbd, 0x38, 0x24, 0x69, 0xbe, 0xc0, 0x11, 0x06, 0x3e,
  0x08, 0x8e, 0x57, 0xbe, 0xf4, 0x26, 0x15, 0xbe, 0xc0, 0xce, 0x37, 0x3c,
  0xb8, 0x2d, 0xd9, 0x3d, 0x00, 0x2c, 0xc0, 0x3c, 0x7c, 0x16, 0x55, 0xbe,
  0x40, 0x1d, 0xe7, 0x3d, 0x00, 0xcb, 0x18, 0x3d, 0x54, 0xd0, 0x20, 0xbe,
  0xec, 0x03, 0x16, 0x3e, 0x6c, 0x57, 0x21, 0x3e, 0x08, 0xf9, 0x49, 0xbe,
  0xb0, 0xda, 0x72, 0xbd, 0xa4, 0x13, 0xba, 0x3c, 0xae, 0x3e, 0x17, 0x3e,
  0x00, 0x05, 0x4c, 0x3b, 0xbb, 0x05, 0x20, 0xbe, 0xf3, 0xb4, 0x7c, 0x3d,
  0x04, 0x76, 0x92, 0x3e, 0x08, 0x42, 0xec, 0xbd, 0x50, 0x44, 0xfe, 0x3d,
  0x30, 0x14, 0x35, 0x3e, 0x3b, 0xa0, 0x2f, 0xbd, 0x29, 0xf4, 0x44, 0x3e,
  0x40, 0xaf, 0xfa, 0xbc, 0xca, 0xd7, 0xa9, 0x3d, 0x69, 0xcc, 0x06, 0x3c,
  0x5c, 0xe5, 0x71, 0xbe, 0x30, 0x5e, 0x5f, 0x3d, 0x62, 0xc4, 0xd6, 0xbc,
  0x70, 0xc7, 0x93, 0xbd, 0xe0, 0x62, 0xaa, 0xbd, 0x75, 0xdb, 0x65, 0xbe,
  0x83, 0xc9, 0x86, 0xbd, 0x9c, 0x56, 0x44, 0x3e, 0x69, 0x8d, 0x6f, 0xbe,
  0xf0, 0x6a, 0x0f, 0xbd, 0x4f, 0x89, 0x47, 0x3e, 0xf0, 0xea, 0x8a, 0x3d,
  0x15, 0xd6, 0x4a, 0xbe, 0x1a, 0xdc, 0x62, 0xbd, 0x1a, 0xbe, 0x44, 0xbd,
  0xf1, 0x14, 0xab, 0xbd, 0x9b, 0xd4, 0x44, 0x3e, 0xbc, 0x21, 0x2a, 0xbe,
  0x09, 0x11, 0x34, 0xbe, 0x3f, 0x86, 0xdb, 0xbd, 0x80, 0x0f, 0x94, 0xbc,
  0xbd, 0xe9, 0x7b, 0x3d, 0x88, 0xa0, 0xc0, 0xbe, 0x3d, 0x2b, 0x47, 0x3d,
  0x74, 0x5c, 0x6d, 0x3e, 0x58, 0x34, 0xf8, 0xbd, 0x74, 0x91, 0x77, 0xbe,
  0x21, 0x0d, 0xe5, 0xbd, 0x57, 0xda, 0x28, 0x3e, 0x45, 0x70, 0x64, 0x3d,
  0x17, 0xff, 0x53, 0xbe, 0xcb, 0x83, 0x4b, 0xbe, 0x08, 0x73, 0xa5, 0xbd,
  0xdc, 0x1d, 0x08, 0x3e, 0x84, 0xae, 0x42, 0xbd, 0xd0, 0x4a, 0xae, 0xbd,
  0x2b, 0x34, 0x51, 0x3e, 0x39, 0x95, 0x9a, 0x3d, 0x5c, 0x23, 0x49, 0x3e,
  0xc4, 0xc6, 0x5b, 0x3e, 0xc6, 0x15, 0xce, 0x3d, 0x30, 0x52, 0x1b, 0xbd,
  0x06, 0x0e, 0x54, 0x3e, 0xa8, 0xe6, 0xc1, 0x3d, 0xba, 0x65, 0x97, 0xbc,
  0xa5, 0x0d, 0x0b, 0x3e, 0x15, 0xf6, 0x61, 0x3d, 0xf2, 0x7a, 0x81, 0xbe,
  0xd8, 0xad, 0xfd, 0xbd, 0x70, 0xf3, 0x3a, 0xbe, 0x0c, 0x9c, 0x15, 0xbe,
  0x7c, 0x78, 0x43, 0xbe, 0x20, 0xd1, 0x6d, 0xbd, 0x50, 0xe6, 0x7f, 0xbd,
  0x60, 0x24, 0x78, 0x3e, 0x80, 0x8a, 0xa4, 0x3d, 0xc8, 0x8a, 0x97, 0x3d,
  0x84, 0xf7, 0x09, 0x3e, 0x60, 0x16, 0x73, 0xbd, 0xe8, 0x81, 0x31, 0x3e,
  0xf4, 0x48, 0x3f, 0xbe, 0x80, 0x57, 0x53, 0x3d, 0xa8, 0x49, 0xa4, 0x3d,
  0x50, 0x17, 0x39, 0xbd, 0x00, 0x57, 0x79, 0x3b, 0x74, 0xdd, 0x48, 0x3e,
  0x60, 0xb7, 0xbb, 0x3c, 0xa0, 0x28, 0xb2, 0xbc, 0xa0, 0x7e, 0x75, 0x3e,
  0x2c, 0x63, 0x17, 0xbe, 0x50, 0x8c, 0xcd, 0x3d, 0xd8, 0x18, 0xf4, 0x3d,
  0x94, 0xea, 0x6d, 0xbe, 0x60, 0x25, 0x34, 0xbe, 0xd8, 0x33, 0x0e, 0xbe,
  0x90, 0x8f, 0x1b, 0x3d, 0xc4, 0x4e, 0x44, 0x3e, 0xc0, 0xb2, 0x45, 0x3d,
  0xa0, 0xfe, 0xed, 0x3d, 0x04, 0xde, 0x58, 0xbe, 0x54, 0xa1, 0x02, 0xbe,
  0x40, 0x2e, 0xd1, 0x3d, 0x6a, 0xc8, 0xf9, 0x3d, 0x1b, 0x82, 0xd6, 0xbc,
  0xb8, 0xe2, 0x51, 0xbe, 0x8c, 0x1c, 0x2c, 0x3e, 0xb9, 0x29, 0xb0, 0x3d,
  0xf1, 0x54, 0x7a, 0x3d, 0x00, 0xcc, 0xff, 0x3b, 0x80, 0xf4, 0xb6, 0x3c,
  0x98, 0x2c, 0xe2, 0xbd, 0x89, 0x13, 0x3f, 0x3e, 0xbf, 0xcc, 0x79, 0x3e,
  0xa5, 0x26, 0x66, 0xbe, 0x71, 0xd1, 0x79, 0x3e, 0x78, 0x82, 0x17, 0x3e,
  0x2c, 0x5e, 0x11, 0x3e, 0x98, 0x3e, 0xa5, 0xbd, 0xb8, 0x36, 0x7a, 0x3d,
  0x84, 0x73, 0x31, 0x3e, 0x93, 0x58, 0x7b, 0x3e, 0xc3, 0x6e, 0xc7, 0x3d,
  0x76, 0x43, 0xc2, 0xbc, 0x00, 0x47, 0x09, 0x3e, 0xf3, 0xab, 0xf3, 0xbd,
  0x08, 0x46, 0x78, 0x3e, 0x92, 0xb5, 0x06, 0x3e, 0xd0, 0xc7, 0x33, 0x3d,
  0xba, 0xcd, 0x71, 0xbc, 0xf6, 0xa8, 0xa5, 0x3d, 0xe1, 0x80, 0xa2, 0x3d,
  0xd4, 0x7d, 0x96, 0x3e, 0xaf, 0x23, 0x97, 0xbb, 0x38, 0x36, 0xe8, 0x3d,
  0xa5, 0x1d, 0x9a, 0x3d, 0xcd, 0xf6, 0x6f, 0xbe, 0x18, 0x72, 0xc7, 0xbd,
  0x59, 0x88, 0x1d, 0xbd, 0x00, 0x4c, 0x2c, 0x3a, 0x81, 0x9c, 0x5f, 0x3c,
  0x04, 0x51, 0x15, 0xbe, 0xb8, 0x7c, 0xf1, 0xbd, 0xc0, 0xa3, 0xc2, 0x3d,
  0xaf, 0xb2, 0x6f, 0xbb, 0xc5, 0xa0, 0x94, 0x3d, 0x64, 0x8b, 0x74, 0xbe,
  0x0b, 0xa7, 0x0e, 0x3e, 0xcd, 0x9c, 0xe5, 0x3d, 0x00, 0xa1, 0x76, 0xbe,
  0x74, 0x17, 0x20, 0xbe, 0xb3, 0x0e, 0x2a, 0x3e, 0x1c, 0x07, 0x2b, 0x3e,
  0xed, 0x52, 0xd1, 0x3d, 0x03, 0xbe, 0x86, 0xbd, 0x03, 0x16, 0x61, 0x3e,
  0x20, 0x73, 0xcb, 0x3d, 0xa7, 0xcc, 0x75, 0x3e, 0x80, 0x41, 0x41, 0xbd,
  0x11, 0x1e, 0x71, 0xbe, 0x50, 0x4b, 0xb0, 0xbd, 0x28, 0x5e, 0x0b, 0xbe,
  0x98, 0x76, 0xf4, 0xbc, 0xf3, 0x75, 0xaf, 0xbd, 0x98, 0x68, 0x3b, 0x3e,
  0xad, 0xcb, 0x0a, 0xbe, 0xb0, 0xb4, 0x68, 0xbd, 0x07, 0x9f, 0x08, 0x3d,
  0x1c, 0x08, 0x53, 0x3e, 0x78, 0x19, 0x7e, 0x3e, 0x70, 0x33, 0x7d, 0x3d,
  0xd9, 0x10, 0xdd, 0x3e, 0xb3, 0x1a, 0xf4, 0xbd, 0xc4, 0x81, 0x37, 0xbe,
  0xb8, 0x34, 0x3b, 0xbe, 0x74, 0x11, 0x12, 0x3e, 0x6e, 0xba, 0x5c, 0x3e,
  0x18, 0x2e, 0xfc, 0x3d, 0xe9, 0xc6, 0x09, 0x3d, 0x0a, 0x05, 0xd6, 0xbd,
  0x49, 0x0c, 0x91, 0xbd, 0x98, 0x9b, 0xc1, 0x3d, 0x4c, 0xb2, 0x75, 0x3e,
  0xeb, 0x40, 0x24, 0x3d, 0xc0, 0x4d, 0x38, 0x3d, 0x22, 0x6f, 0x4f, 0xbc,
  0xbb, 0x68, 0x42, 0x3e, 0x89, 0x98, 0x38, 0x3e, 0xf8, 0xb5, 0xfe, 0xbd,
  0x07, 0x03, 0x90, 0xbd, 0x48, 0x06, 0x1d, 0xbe, 0x62, 0x90, 0xc1, 0xbd,
  0xe0, 0xde, 0x36, 0xbd, 0xa6, 0x00, 0x70, 0x3e, 0xb1, 0x9d, 0x3c, 0x3e,
  0xe6, 0xb5, 0x5d, 0x3d, 0x7a, 0xd9, 0x06, 0x3f, 0x5d, 0x4a, 0x00, 0x3e,
  0x80, 0x72, 0x49, 0x3c, 0x1f, 0x54, 0x07, 0xbe, 0x34, 0x8b, 0x75, 0xbe,
  0xac, 0x77, 0x0f, 0xbe, 0xd9, 0x4f, 0x62, 0xbc, 0xea, 0xe8, 0x5c, 0xbe,
  0x74, 0x5c, 0x70, 0xbd, 0xc0, 0xd4, 0xa4, 0xbc, 0x38, 0xbb, 0x0c, 0xbe,
  0xe0, 0xc5, 0x6e, 0x3d, 0x16, 0xb4, 0x43, 0x3e, 0xa9, 0x3a, 0x39, 0xbc,
  0x00, 0x74, 0xe2, 0x3b, 0x39, 0x0e, 0x1b, 0x3e, 0xf5, 0x74, 0xe3, 0x3d,
  0xc0, 0xcb, 0xdb, 0x3c, 0xdc, 0x1a, 0x3c, 0x3e, 0x2e, 0x83, 0x6c, 0xbb,
  0x00, 0x38, 0x55, 0x3a, 0xd9, 0xfb, 0x9e, 0xbd, 0x7f, 0x99, 0x4a, 0x3e,
  0x3a, 0x4f, 0x4f, 0x3e, 0xe0, 0xdf, 0x1e, 0x3d, 0x58, 0xd3, 0x02, 0xbe,
  0xec, 0xb2, 0x35, 0xbe, 0x0b, 0xdd, 0xae, 0x3b, 0x6c, 0x4e, 0x7c, 0x3e,
  0x37, 0xb9, 0x83, 0xbe, 0x38, 0xa8, 0x46, 0x3e, 0x63, 0xdb, 0x00, 0xbe,
  0xe1, 0x5b, 0x1f, 0xbe, 0xc3, 0xf1, 0xcc, 0xbd, 0x60, 0x0a, 0x57, 0xbd,
  0x37, 0x74, 0x5d, 0x3a, 0x23, 0x95, 0x0a, 0xbe, 0x70, 0xa5, 0x05, 0x3e,
  0x7e, 0x3d, 0x5e, 0xbd, 0x40, 0xfd, 0x2a, 0x3c, 0xd0, 0x4b, 0x0d, 0xbe,
  0x60, 0x55, 0x52, 0x3d, 0x44, 0x24, 0x1c, 0x3e, 0x80, 0x73, 0x33, 0xbc,
  0x38, 0x5b, 0x82, 0xbe, 0x4f, 0xe5, 0xa3, 0x3d, 0xf0, 0xe8, 0xa5, 0x3d,
  0xac, 0x7a, 0x31, 0x3e, 0x7b, 0x64, 0x61, 0x3e, 0xa8, 0x1e, 0xed, 0x3d,
  0xa0, 0x94, 0x1d, 0xbd, 0x6a, 0x69, 0x23, 0x3e, 0x00, 0x70, 0xe0, 0x3c,
  0x6e, 0x15, 0x51, 0x3d, 0xfa, 0x1e, 0x13, 0xbd, 0xfc, 0xed, 0x86, 0xbe,
  0xf8, 0x1b, 0xc4, 0x3d, 0x1b, 0x7b, 0x6e, 0xbe, 0x00, 0x11, 0x44, 0xbe,
  0xb2, 0x33, 0x86, 0xbe, 0x8c, 0x66, 0x69, 0x3e, 0xf0, 0x01, 0xa8, 0xbd,
  0xff, 0x3f, 0x9d, 0x3d, 0x45, 0x46, 0x53, 0x3d, 0xb0, 0x19, 0x49, 0x3d,
  0x5e, 0xa1, 0xeb, 0xbd, 0x40, 0xbc, 0x64, 0xbe, 0x2f, 0xd7, 0x6c, 0xbc,
  0x36, 0x08, 0x54, 0xbe, 0xe8, 0x8d, 0x8e, 0x3d, 0x10, 0xb7, 0xd4, 0x3d,
  0x3b, 0xb8, 0x26, 0x3f, 0x09, 0xe5, 0x9a, 0xbe, 0x9c, 0x72, 0x30, 0xbe,
  0x50, 0xbc, 0x45, 0x3e, 0x88, 0xa3, 0x90, 0x3d, 0x9a, 0x93, 0x0b, 0x3e,
  0xdd, 0xdc, 0x38, 0xbe, 0x8a, 0x67, 0x26, 0xbc, 0xa8, 0xed, 0xa2, 0xbe,
  0x88, 0xa1, 0x6f, 0x3c, 0xb0, 0x3c, 0x39, 0xbd, 0x3c, 0xbb, 0x19, 0x3e,
  0xc5, 0x22, 0x72, 0xbc, 0x80, 0x50, 0x33, 0x3c, 0x3f, 0x6c, 0x9f, 0x3d,
  0x96, 0x53, 0x46, 0x3d, 0xa7, 0x04, 0x54, 0x3c, 0x2c, 0x41, 0x47, 0xbe,
  0x4e, 0x58, 0xfa, 0x3d, 0x30, 0x0b, 0x62, 0xbe, 0xf7, 0x95, 0x40, 0xbe,
  0x40, 0xe3, 0x04, 0xbc, 0x68, 0x07, 0x73, 0x3d, 0x11, 0x40, 0xc8, 0x3d,
  0x47, 0x14, 0x39, 0xbe, 0xa9, 0x98, 0x0b, 0x3f, 0x54, 0x59, 0x1e, 0xbe,
  0x68, 0x5c, 0x79, 0x3e, 0xb0, 0xca, 0x4d, 0x3e, 0x52, 0xa6, 0xc5, 0x3c,
  0xa4, 0x68, 0x5a, 0xbe, 0x5c, 0xf1, 0x59, 0x3e, 0x34, 0xf3, 0x28, 0x3e,
  0x42, 0xfa, 0x45, 0xbe, 0xd8, 0x46, 0x9b, 0x3d, 0x80, 0x64, 0xdf, 0xbb,
  0xbc, 0x04, 0x01, 0xbe, 0xa9, 0x31, 0xac, 0xbc, 0x5e, 0xb6, 0x2c, 0x3e,
  0x82, 0x56, 0x04, 0x3d, 0x5b, 0xe0, 0x7c, 0x3d, 0xa9, 0x42, 0x74, 0x3e,
  0xac, 0xcb, 0x15, 0xbe, 0x5c, 0xa3, 0x48, 0x3e, 0xcd, 0x76, 0xb2, 0xbc,
  0x70, 0xff, 0x5c, 0xbe, 0x05, 0x3c, 0x4a, 0x3e, 0xb1, 0xec, 0xed, 0x3d,
  0xc1, 0xfc, 0x0f, 0xbe, 0x10, 0xe2, 0x0e, 0xbe, 0x28, 0x4d, 0x9a, 0x3c,
  0x98, 0xaf, 0xb1, 0x3d, 0xc7, 0x16, 0x4d, 0xbe, 0x40, 0x15, 0x9c, 0x3d,
  0x0e, 0xad, 0x19, 0x3e, 0x37, 0xbd, 0x51, 0x3e, 0x94, 0xb2, 0x68, 0xbe,
  0xd5, 0xe2, 0x01, 0x3f, 0x32, 0x50, 0x73, 0x3e, 0x60, 0x73, 0x22, 0x3e,
  0x5c, 0x81, 0x62, 0x3e, 0xac, 0x56, 0x5d, 0xbe, 0xcc, 0x15, 0x7b, 0xbe,
  0x78, 0xf6, 0x0c, 0xbe, 0x9c, 0xa3, 0x38, 0x3e, 0xd4, 0xc5, 0x4b, 0x3e,
  0x20, 0x31, 0x6f, 0xbe, 0x8c, 0xad, 0x12, 0xbe, 0x64, 0x8d, 0x59, 0xbe,
  0xb0, 0xba, 0x5b, 0xbe, 0x40, 0xdd, 0x0e, 0x3e, 0x60, 0x4c, 0x20, 0x3d,
  0xa0, 0xb5, 0x6d, 0xbd, 0x00, 0x43, 0xe5, 0xbd, 0x00, 0x85, 0x17, 0xbb,
  0x30, 0xd4, 0xf5, 0x3d, 0xe0, 0xb2, 0xf4, 0xbd, 0x30, 0xdb, 0xdc, 0xbd,
  0xf8, 0x52, 0x0b, 0x3e, 0x8c, 0x87, 0x65, 0xbe, 0x54, 0xdc, 0x2a, 0xbe,
  0xe8, 0x39, 0xed, 0xbd, 0x20, 0x28, 0x9d, 0xbc, 0xbc, 0x41, 0x28, 0x3e,
  0x44, 0x6a, 0x0c, 0xbe, 0x00, 0x6e, 0x51, 0xbe, 0xe8, 0xf6, 0x02, 0x3e,
  0x60, 0x14, 0xce, 0x3c, 0xe8, 0x48, 0xa6, 0xbd, 0x70, 0x54, 0x04, 0xbd,
  0xc0, 0xf1, 0x62, 0x3d, 0xc0, 0xc2, 0x4d, 0xbe, 0x7c, 0xfd, 0x48, 0x3e,
  0x58, 0xaa, 0x90, 0xbd, 0xf4, 0xaf, 0x4b, 0xbe, 0xd0, 0x9f, 0xf7, 0xbd,
  0x78, 0x99, 0x7c, 0xbe, 0x44, 0xc5, 0x42, 0x3e, 0xc0, 0x65, 0xfd, 0xbd,
  0x80, 0x4b, 0xeb, 0xbc, 0x7c, 0x43, 0x59, 0x3e, 0x20, 0x67, 0x5a, 0xbe,
  0xa8, 0x1e, 0x09, 0xbe, 0xbc, 0xcc, 0x35, 0x3e, 0xd0, 0x91, 0x7d, 0x3d,
  0xc8, 0x9e, 0x00, 0x3e, 0x80, 0x37, 0x27, 0x3d, 0x08, 0xb4, 0x3e, 0xbe,
  0x2c, 0x1e, 0x5b, 0xbe, 0x5c, 0x90, 0x68, 0x3e, 0x48, 0x91, 0x29, 0x3e,
  0xd4, 0xa1, 0x37, 0xbe, 0xc0, 0xce, 0x73, 0x3d, 0x30, 0x13, 0x2a, 0x3e,
  0xcc, 0xec, 0x52, 0x3e, 0x40, 0x09, 0x90, 0x3d, 0x00, 0xe1, 0x81, 0x3b,
  0x68, 0x03, 0x04, 0xbe, 0x30, 0xf6, 0x57, 0x3e, 0x50, 0x64, 0xcb, 0xbd,
  0xd8, 0x64, 0xe4, 0xbd, 0x60, 0x68, 0xb3, 0xbd, 0x38, 0x4c, 0x77, 0xbe,
  0x1c, 0xb7, 0x3b, 0xbe, 0x1c, 0x1b, 0x33, 0x3e, 0x9c, 0xf9, 0x5d, 0x3e,
  0x00, 0xab, 0x1c, 0x3d, 0x39, 0xb3, 0x38, 0xbe, 0xfc, 0xed, 0xe8, 0xbd,
  0xac, 0x2b, 0x93, 0xbe, 0x38, 0xa9, 0x4f, 0xbe, 0x80, 0xf8, 0xb3, 0x3d,
  0xdc, 0x7f, 0x3e, 0xbe, 0x4c, 0xb5, 0x72, 0x3e, 0xf7, 0x7a, 0x83, 0xbe,
  0x40, 0x9a, 0x1f, 0x3e, 0x9d, 0x59, 0x34, 0xbe, 0xac, 0x1d, 0xcd, 0xbd,
  0x80, 0xf4, 0x2c, 0x3d, 0x0c, 0x63, 0x02, 0x3e, 0xb8, 0x44, 0x80, 0xbe,
  0x28, 0x85, 0x7b, 0x3e, 0x8d, 0x2d, 0x62, 0xbe, 0xb4, 0xcb, 0x57, 0x3d,
  0x6e, 0xda, 0x16, 0x3e, 0xe0, 0x75, 0xb4, 0xbd, 0xcb, 0x0e, 0x3d, 0x3e,
  0xe0, 0xa9, 0x32, 0x3d, 0xb3, 0x0c, 0x2d, 0xbe, 0x58, 0x03, 0x9b, 0x3d,
  0xe4, 0xd1, 0xb6, 0xbd, 0xb0, 0x4f, 0x3e, 0x3e, 0xc6, 0x49, 0x33, 0xbe,
  0xcc, 0x57, 0x53, 0x3e, 0x53, 0x39, 0x1d, 0xbe, 0xd8, 0x6f, 0xb3, 0xbd,
  0x92, 0x30, 0x08, 0x3e, 0x42, 0x5e, 0xc9, 0xbd, 0x60, 0xdb, 0x7e, 0x3d,
  0x66, 0xd0, 0x4d, 0xbd, 0x40, 0x5a, 0xd2, 0xbc, 0x95, 0x62, 0xdd, 0x3c,
  0x18, 0xf8, 0x6a, 0xbe, 0x78, 0x58, 0x17, 0x3e, 0xa8, 0x20, 0x16, 0x3e,
  0x28, 0xba, 0x9a, 0x3c, 0x80, 0xb3, 0x09, 0xbc, 0x5c, 0x7e, 0x60, 0xbe,
  0x26, 0x63, 0x08, 0x3d, 0xa4, 0xdd, 0xc4, 0xbd, 0xac, 0xbf, 0x71, 0xbe,
  0x60, 0x23, 0x1f, 0xbe, 0x64, 0x49, 0x31, 0xbb, 0xc0, 0xda, 0x84, 0xbd,
  0xe4, 0xf5, 0x4b, 0xbe, 0xe5, 0xfd, 0x5b, 0xbd, 0xe0, 0x01, 0x0e, 0x3c,
  0x2c, 0x04, 0x30, 0xbe, 0x90, 0x67, 0x34, 0x3e, 0x38, 0x7d, 0xa5, 0x3d,
  0x1c, 0x24, 0x5d, 0xbe, 0x38, 0x11, 0xa3, 0x3d, 0x39, 0x68, 0x64, 0xbe,
  0x3e, 0xeb, 0x3a, 0x3e, 0x92, 0xf4, 0x33, 0x3e, 0xfa, 0xd0, 0x19, 0x3e,
  0xed, 0x85, 0x50, 0xbe, 0xe0, 0xab, 0x18, 0xbe, 0xad, 0x8b, 0xc0, 0x3d,
  0xbf, 0x49, 0x42, 0x3e, 0x38, 0x9b, 0xb3, 0xbd, 0x92, 0xb3, 0x3d, 0xbe,
  0xf2, 0xfb, 0x12, 0x3f, 0x7a, 0xff, 0x23, 0xbe, 0x90, 0xf0, 0xdb, 0xbd,
  0x80, 0x94, 0x47, 0xbe, 0xf0, 0xe6, 0xd6, 0x3d, 0x82, 0x9f, 0x6c, 0x3e,
  0xfd, 0x4d, 0xab, 0xbd, 0x66, 0x98, 0xb4, 0xbb, 0xc4, 0x23, 0x4d, 0x3e,
  0x61, 0xa6, 0x4b, 0x3d, 0xb0, 0x61, 0x82, 0x3d, 0x90, 0xc9, 0x26, 0x3d,
  0x9b, 0x9b, 0x53, 0x3d, 0xe0, 0xd7, 0x2b, 0x3d, 0xb1, 0x93, 0x36, 0xbe,
  0x4c, 0x13, 0x7c, 0x3d, 0x0f, 0x8d, 0x25, 0x3e, 0x48, 0x46, 0x6d, 0xbe,
  0xf2, 0x8c, 0x19, 0xbc, 0x40, 0xf0, 0xa6, 0x3c, 0xba, 0x18, 0x68, 0x3d,
  0x00, 0x93, 0x2e, 0xbd, 0xe6, 0x9f, 0x3d, 0x3e, 0xc7, 0x0a, 0xfc, 0xbd,
  0xc2, 0x5f, 0x64, 0x3e, 0xfb, 0xbe, 0xb1, 0x3e, 0xaa, 0x59, 0x3f, 0x3e,
  0x00, 0x44, 0xa4, 0xbb, 0xfe, 0x1d, 0x6c, 0x3e, 0xda, 0x01, 0xbe, 0x3d,
  0x74, 0x41, 0x13, 0x3e, 0xbc, 0xaa, 0xd8, 0xbc, 0x9f, 0x21, 0xe0, 0x3e,
  0xfc, 0x6a, 0xb7, 0x3d, 0x90, 0xc7, 0xe3, 0x3d, 0x70, 0x93, 0xd4, 0xbd,
  0xc0, 0xcf, 0xbf, 0x3c, 0x59, 0x62, 0x7e, 0x3d, 0x71, 0x62, 0x88, 0x3d,
  0x8a, 0xd1, 0x38, 0x3e, 0x26, 0x8f, 0x26, 0xbd, 0x14, 0x12, 0x5b, 0xbe,
  0x4c, 0x7a, 0x57, 0xbe, 0xd4, 0x62, 0x7d, 0x3e, 0x7a, 0x27, 0x74, 0x3d,
  0x80, 0x7f, 0x38, 0xbc, 0x74, 0x05, 0x12, 0xbe, 0x5b, 0x07, 0x78, 0xbd,
  0x5d, 0x6c, 0xaa, 0xbd, 0x00, 0xf4, 0xd6, 0xbc, 0xb3, 0xac, 0xb4, 0xbd,
  0xe0, 0xad, 0xa3, 0xbd, 0xf5, 0x37, 0xc7, 0xbd, 0x6c, 0xd8, 0x50, 0x3e,
  0x1d, 0x79, 0x9a, 0xbd, 0x21, 0xa1, 0x85, 0x3e, 0xc7, 0x0c, 0xd3, 0xbd,
  0xf3, 0x5e, 0xf8, 0x3e, 0x40, 0x58, 0x68, 0x3e, 0xe0, 0xe9, 0x2b, 0x3e,
  0xf4, 0xb4, 0x12, 0x3d, 0x03, 0x07, 0x79, 0x3d, 0x90, 0xe3, 0x56, 0xbd,
  0x01, 0xa4, 0x59, 0x3e, 0xb8, 0x66, 0xda, 0x3e, 0x6c, 0x2b, 0x89, 0x3e,
  0x60, 0x7e, 0x46, 0xbe, 0x80, 0x62, 0x90, 0x3d, 0x0c, 0xc1, 0x7c, 0xbe,
  0x94, 0xd5, 0x98, 0x3d, 0xec, 0x94, 0x9b, 0xbd, 0x68, 0x14, 0x37, 0xbd,
  0x63, 0x76, 0x3d, 0x3e, 0x4c, 0x38, 0xc5, 0x3c, 0x20, 0x81, 0x63, 0xbd,
  0x00, 0xcc, 0x63, 0xbd, 0x21, 0x14, 0xbb, 0xbd, 0x88, 0x9e, 0xe9, 0x3d,
  0x0c, 0xe5, 0xf6, 0xbd, 0xeb, 0x0a, 0x1d, 0xbe, 0x56, 0xcf, 0x8f, 0x3d,
  0x00, 0xe5, 0x71, 0xbc, 0x7f, 0x7a, 0x6d, 0xbe, 0x5c, 0x04, 0x39, 0x3e,
  0x7b, 0xa5, 0x18, 0xbe, 0xa0, 0xec, 0x60, 0x3d, 0x62, 0x92, 0x05, 0x3e,
  0x18, 0x67, 0x20, 0x3e, 0xa7, 0xa0, 0x06, 0x3e, 0x74, 0x21, 0xd3, 0x3e,
  0x17, 0xed, 0xf1, 0xbd, 0x00, 0x26, 0x1b, 0x3c, 0xc3, 0x30, 0xf5, 0xbc,
  0xe5, 0x77, 0x4a, 0xbb, 0x08, 0xfd, 0xb1, 0xbd, 0xf0, 0x1a, 0x30, 0x3d,
  0xab, 0xa1, 0x15, 0x3f, 0xf8, 0xab, 0x40, 0x3d, 0xe8, 0x70, 0x98, 0xbd,
  0x8c, 0x7e, 0x5d, 0xbe, 0x28, 0x5b, 0x7f, 0x3e, 0xd8, 0x70, 0xf5, 0xbb,
  0x1e, 0xc0, 0xd3, 0xbc, 0x00, 0x5e, 0x15, 0xbe, 0x0f, 0xac, 0x60, 0xbe,
  0x12, 0x1c, 0xca, 0x3d, 0x00, 0xe0, 0x1e, 0x3a, 0x00, 0x77, 0xb6, 0xbc,
  0x10, 0x90, 0xd8, 0xbd, 0x6c, 0x7b, 0x05, 0xbe, 0xf9, 0x18, 0x66, 0xbd,
  0x92, 0xa9, 0xc1, 0x3d, 0xf1, 0x92, 0x85, 0xbd, 0x54, 0x85, 0x64, 0xbe,
  0xe0, 0xbb, 0xc6, 0xbd, 0x20, 0xd5, 0xe5, 0xbd, 0xaf, 0xa8, 0x10, 0xbd,
  0x00, 0xcb, 0xcf, 0xbb, 0x38, 0xde, 0x4c, 0x3e, 0x4d, 0x1b, 0xc4, 0xbc,
  0xa4, 0x3f, 0x16, 0xbe, 0xbe, 0x6c, 0xa0, 0x3d, 0x44, 0x1e, 0xd2, 0xbd,
  0x78, 0x50, 0xcb, 0x3d, 0xa6, 0xa7, 0x08, 0x3e, 0x1d, 0x46, 0xea, 0x3d,
  0x74, 0x15, 0x18, 0xbe, 0x80, 0x15, 0x02, 0xbe, 0x7c, 0x42, 0x11, 0x3e,
  0x91, 0xe1, 0x06, 0x3e, 0x68, 0x7c, 0x76, 0x3e, 0x08, 0xa1, 0xe9, 0xbd,
  0x90, 0x4f, 0xbc, 0x3d, 0xe0, 0x80, 0x43, 0xbe, 0xbe, 0x21, 0x74, 0xbe,
  0x80, 0x28, 0x80, 0x3d, 0x4d, 0xea, 0x8b, 0x3d, 0x48, 0xc8, 0xc9, 0x3c,
  0xc8, 0x93, 0xc9, 0xbd, 0xc4, 0x9a, 0x24, 0xbe, 0x1b, 0xac, 0x22, 0x3e,
  0x20, 0x81, 0xcb, 0xbc, 0x68, 0x90, 0x58, 0x3e, 0x84, 0x2a, 0xa9, 0xbd,
  0x64, 0x10, 0x06, 0x3e, 0xd0, 0x48, 0x37, 0xbd, 0xd0, 0x70, 0x5e, 0x3e,
  0x80, 0xc1, 0x26, 0xbd, 0x15, 0xb4, 0x90, 0x3d, 0x60, 0x5f, 0x8d, 0x3d,
  0x1a, 0x29, 0x3c, 0xbe, 0x58, 0xca, 0x85, 0xbe, 0x95, 0x0e, 0x36, 0xbe,
  0xf8, 0x23, 0x21, 0x3e, 0x4c, 0x10, 0xa7, 0xbd, 0x30, 0x0d, 0x0d, 0xbd,
  0xf8, 0xa2, 0xfa, 0xbd, 0x04, 0xf7, 0xbd, 0xbd, 0xc0, 0xb7, 0x74, 0x3c,
  0x2b, 0x09, 0xcc, 0x3d, 0xae, 0xaa, 0x50, 0xbd, 0x08, 0xd8, 0x11, 0xbe,
  0x80, 0x82, 0x62, 0x3c, 0x90, 0x8d, 0x06, 0x3e, 0x70, 0x64, 0x13, 0xbd,
  0x6a, 0xa3, 0xee, 0x3c, 0x57, 0x84, 0xe5, 0xbc, 0x10, 0xaf, 0x90, 0x3d,
  0x3c, 0x82, 0x53, 0xbc, 0x5c, 0x83, 0xb9, 0x3d, 0x90, 0x52, 0xa7, 0x3d,
  0x00, 0xe8, 0x5e, 0xbd, 0xd1, 0xe2, 0x95, 0xbb, 0xec, 0x85, 0x3f, 0xbe,
  0x15, 0xc8, 0x47, 0x3e, 0x86, 0xf2, 0x65, 0x3e, 0xa9, 0x16, 0x70, 0xbe,
  0x04, 0xf6, 0x2f, 0x3e, 0xaa, 0x20, 0x09, 0xbe, 0xec, 0xbf, 0x4b, 0x3e,
  0xa7, 0x79, 0xa0, 0x3d, 0xc0, 0xc0, 0x11, 0xbd, 0x18, 0xea, 0x01, 0x3c,
  0x9e, 0xae, 0x9a, 0xbd, 0x7f, 0xa2, 0xa1, 0x3d, 0x4c, 0xdf, 0x10, 0xbe,
  0x56, 0x68, 0xfb, 0xbd, 0x50, 0xa8, 0xc7, 0x3d, 0x38, 0x2a, 0x1d, 0x3e,
  0xf8, 0x54, 0xb7, 0x3d, 0x58, 0x8f, 0x34, 0x3e, 0xf0, 0x81, 0x41, 0xbe,
  0x98, 0x38, 0xa8, 0xbd, 0xbc, 0x13, 0x48, 0xbe, 0x68, 0x38, 0xc9, 0xbd,
  0x8c, 0xf3, 0x2b, 0xbe, 0x60, 0xac, 0x44, 0xbd, 0x98, 0xf9, 0xc4, 0xbd,
  0xf0, 0xa4, 0x39, 0xbd, 0x38, 0xb1, 0x07, 0xbe, 0x74, 0xb5, 0x0e, 0xbe,
  0x50, 0x47, 0xd6, 0xbd, 0xe8, 0x99, 0x0a, 0xbe, 0xc0, 0x2d, 0x3d, 0xbe,
  0x64, 0x64, 0x1f, 0x3e, 0x20, 0x02, 0x29, 0xbe, 0xf4, 0x28, 0x2a, 0xbe,
  0x64, 0x2d, 0x41, 0xbe, 0x98, 0x96, 0x50, 0x3e, 0x10, 0x14, 0x03, 0x3e,
  0x18, 0x8a, 0xbe, 0x3d, 0xd8, 0x86, 0xbb, 0xbd, 0x80, 0x4c, 0x99, 0x3c,
  0xa8, 0x80, 0x10, 0xbe, 0x80, 0xc5, 0xc7, 0x3b, 0x8c, 0x87, 0x1c, 0xbe,
  0x14, 0x98, 0x68, 0xbe, 0x00, 0x4e, 0x5b, 0x3d, 0x00, 0xcd, 0x36, 0x3b,
  0x60, 0xbb, 0xa0, 0xbd, 0x00, 0x22, 0x02, 0xbc, 0xa4, 0xda, 0x4a, 0x3e,
  0x60, 0xf6, 0x2d, 0x3d, 0xa0, 0x7c, 0x34, 0x3d, 0xb8, 0x85, 0x9f, 0x3d,
  0x40, 0x44, 0xc6, 0xbd, 0xc8, 0x90, 0x90, 0x3d, 0xfc, 0xc3, 0x68, 0x3e,
  0x84, 0x1f, 0x16, 0xbe, 0xb0, 0xdf, 0x20, 0x3e, 0xc8, 0xb6, 0x29, 0x3e,
  0xa8, 0x71, 0xb4, 0x3d, 0x10, 0x52, 0x0d, 0x3d, 0x38, 0x83, 0xde, 0xbd,
  0xf8, 0x48, 0xcd, 0xbd, 0x50, 0xaa, 0x01, 0xbe, 0xa0, 0xa2, 0x19, 0x3e,
  0x00, 0x30, 0x68, 0x39, 0x50, 0xae, 0xdd, 0xbd, 0x00, 0xa1, 0xb9, 0x3c,
  0xe8, 0x03, 0xb4, 0x3d, 0x50, 0xd3, 0x78, 0x3d, 0x38, 0xf2, 0x6f, 0xbe,
  0xb0, 0xc2, 0xf7, 0xbd, 0x30, 0xc2, 0x1c, 0xbe, 0xa8, 0x71, 0x81, 0x3d,
  0x58, 0xc4, 0x43, 0xbe, 0xe8, 0x08, 0x58, 0xbe, 0x60, 0x3f, 0xc0, 0xbd,
  0xf8, 0x19, 0xc9, 0x3d, 0x90, 0xb0, 0x96, 0x3d, 0x60, 0x9d, 0x84, 0x3c,
  0x68, 0x60, 0x01, 0xbe, 0x60, 0x22, 0x8c, 0x3d, 0x70, 0x9c, 0xcd, 0xbd,
  0x60, 0xd0, 0x70, 0xbd, 0x00, 0x35, 0x0a, 0x3d, 0x08, 0x09, 0x3a, 0xbe,
  0xb8, 0x80, 0x03, 0x3e, 0xc0, 0x94, 0xc2, 0xbc, 0xfc, 0x67, 0x77, 0x3e,
  0xcc, 0xd2, 0x24, 0xbe, 0x40, 0x57, 0x1f, 0x3d, 0x18, 0x92, 0xd3, 0xbd,
  0xa8, 0x91, 0x13, 0x3e, 0xe8, 0x06, 0x40, 0x3e, 0x30, 0x5a, 0x39, 0xbe,
  0xa0, 0xae, 0x92, 0xbd, 0x1c, 0xe7, 0x76, 0xbe, 0xa0, 0x1d, 0x07, 0xbe,
  0x98, 0xef, 0xa1, 0x3d, 0x00, 0xf7, 0x7a, 0xbe, 0x80, 0x10, 0x91, 0xbd,
  0x50, 0x29, 0xe4, 0x3d, 0x0c, 0x25, 0x14, 0xbe, 0xe0, 0xd4, 0x67, 0xbd,
  0x00, 0xf0, 0x99, 0x3b, 0x48, 0xe4, 0x4a, 0x3e, 0x50, 0xdf, 0x56, 0xbd,
  0x80, 0x5d, 0x06, 0xbd, 0x0c, 0xc3, 0x3c, 0xbe, 0x00, 0x4e, 0x37, 0x3b,
  0xb0, 0xab, 0x13, 0x3d, 0xa0, 0x80, 0x36, 0xbe, 0xde, 0xb4, 0x4e, 0x3e,
  0x3e, 0xa9, 0xd7, 0xbd, 0xe8, 0x82, 0x05, 0xbe, 0x49, 0xa3, 0x41, 0x3e,
  0xdb, 0x5f, 0x92, 0x3e, 0x98, 0x7b, 0x35, 0xbe, 0x60, 0x5d, 0x38, 0x3d,
  0x10, 0x2b, 0x39, 0x3d, 0xfc, 0xcc, 0x33, 0x3e, 0x3a, 0xff, 0x22, 0x3c,
  0xde, 0x1a, 0x04, 0x3e, 0x3e, 0x4f, 0x60, 0xbe, 0x58, 0xfe, 0x57, 0xbd,
  0xbe, 0xcc, 0x1f, 0xbe, 0xa0, 0x52, 0x33, 0x3d, 0x24, 0x5c, 0x06, 0xbe,
  0xe9, 0x9d, 0xa6, 0x3d, 0x20, 0xc9, 0x34, 0x3e, 0xf9, 0x67, 0xec, 0x3c,
  0x2d, 0x89, 0x4e, 0xbe, 0x65, 0x6c, 0xe2, 0xbd, 0x40, 0xda, 0x42, 0x3d,
  0x82, 0xe0, 0x38, 0x3e, 0x10, 0x5b, 0xff, 0xbd, 0x55, 0x51, 0x3c, 0xbe,
  0xa0, 0x0d, 0x6f, 0xbe, 0xa1, 0xc4, 0x18, 0x3c, 0xc4, 0x6c, 0x28, 0x3b,
  0xfd, 0x33, 0xda, 0x3d, 0x04, 0x0b, 0xbc, 0x3e, 0xe3, 0xde, 0x5d, 0x3c,
  0x6c, 0x58, 0x13, 0x3e, 0x5a, 0x63, 0x99, 0x3c, 0x4f, 0xe2, 0xb7, 0x3c,
  0x24, 0x89, 0x32, 0x3e, 0x84, 0x31, 0xdc, 0x3d, 0xca, 0x9c, 0x03, 0x3f,
  0xd9, 0x66, 0x20, 0xbe, 0xa4, 0x89, 0x7d, 0x3e, 0x10, 0x96, 0x36, 0xbd,
  0xc0, 0x4d, 0x87, 0xbc, 0x3f, 0x17, 0x56, 0x3e, 0xe6, 0x2c, 0xb9, 0xbd,
  0x92, 0xf9, 0xe2, 0xbd, 0x0d, 0x15, 0x03, 0x3e, 0x12, 0xd7, 0x30, 0xbe,
  0x70, 0xb0, 0x7b, 0x3e, 0x20, 0x4f, 0x3d, 0xbd, 0xba, 0xe2, 0x55, 0xbe,
  0xc0, 0xa6, 0xb4, 0xbc, 0x72, 0x7f, 0x31, 0x3d, 0x52, 0x3c, 0x00, 0xbd,
  0x42, 0xca, 0x6d, 0x3e, 0x04, 0xf2, 0x07, 0xbe, 0xe0, 0x55, 0x6d, 0xbe,
  0xac, 0xc8, 0x14, 0xbe, 0x13, 0xb1, 0xfc, 0xbc, 0xcc, 0x95, 0x51, 0xbe,
  0xf1, 0xcb, 0x39, 0x3e, 0x7b, 0x56, 0xae, 0x3d, 0xe8, 0x6a, 0x63, 0x3e,
  0x51, 0xa2, 0x85, 0x3e, 0x63, 0xb0, 0x8b, 0x3c, 0x00, 0x39, 0x70, 0xbd,
  0xb9, 0x5d, 0x72, 0xbe, 0x60, 0xca, 0x6e, 0x3e, 0x98, 0xc1, 0x6d, 0xbe,
  0x46, 0x6d, 0x12, 0x3e, 0x2b, 0x58, 0x54, 0x3e, 0x0f, 0xae, 0x5c, 0x3e,
  0x38, 0x3c, 0xd0, 0x3d, 0xa0, 0x7f, 0x03, 0x3d, 0xf4, 0x24, 0x43, 0xbe,
  0x23, 0x42, 0x3d, 0x3e, 0x0d, 0x65, 0xd1, 0x3d, 0xd4, 0x91, 0x60, 0x3e,
  0x5a, 0x8c, 0x30, 0x3e, 0xa5, 0xd5, 0x35, 0x3e, 0x7c, 0x77, 0x64, 0x3e,
  0x54, 0xb8, 0x26, 0xbe, 0xb6, 0x9f, 0x5a, 0xbe, 0x20, 0x1e, 0xb1, 0xbd,
  0x4c, 0xab, 0x84, 0x3e, 0xce, 0x6b, 0x32, 0xbe, 0x6b, 0xe5, 0x2b, 0xbe,
  0x1c, 0xea, 0x4a, 0x3e, 0x32, 0x1f, 0x76, 0x3d, 0x00, 0xd5, 0x44, 0x3e,
  0x6f, 0x70, 0x16, 0x3e, 0xb8, 0x70, 0xf4, 0x3d, 0x89, 0x06, 0x86, 0x3d,
  0x6b, 0xfe, 0x55, 0xbe, 0x8e, 0x00, 0x72, 0x3e, 0x3f, 0xed, 0x0f, 0x3e,
  0x04, 0x4b, 0x1b, 0x3e, 0x80, 0x49, 0x0d, 0x3d, 0x60, 0xda, 0xc2, 0xbc,
  0x00, 0x5a, 0x4f, 0x3d, 0x60, 0x70, 0x52, 0xbe, 0xe0, 0x46, 0x5d, 0x3d,
  0xd4, 0x25, 0x3a, 0xbe, 0x10, 0x9b, 0xce, 0x3d, 0xe0, 0xad, 0x28, 0x3e,
  0xe0, 0x4a, 0x1f, 0xbd, 0xc8, 0x47, 0xb0, 0x3d, 0x60, 0xf2, 0x3f, 0xbd,
  0xa8, 0xbf, 0x31, 0xbe, 0xd4, 0x3e, 0x7a, 0xbe, 0xd0, 0x2d, 0x89, 0xbd,
  0x54, 0xa3, 0x7c, 0x3e, 0x84, 0x5e, 0x6c, 0xbe, 0xc8, 0x88, 0x33, 0xbe,
  0x28, 0x6e, 0xc6, 0xbd, 0x10, 0x49, 0x81, 0x3d, 0x68, 0x96, 0x2a, 0x3e,
  0xd0, 0x4c, 0x79, 0x3d, 0x18, 0x0c, 0x8d, 0xbd, 0x58, 0x22, 0xdf, 0x3d,
  0xe8, 0xc6, 0xc8, 0xbd, 0x40, 0x09, 0x01, 0xbc, 0x40, 0x84, 0x92, 0xbd,
  0x48, 0x53, 0xcf, 0x3d, 0x58, 0xa2, 0xbd, 0x3d, 0x70, 0xc3, 0xbb, 0xbd,
  0x68, 0x99, 0x76, 0xbe, 0x78, 0x34, 0xc0, 0x3d, 0x3c, 0xe1, 0x41, 0xbe,
  0x80, 0xcf, 0xe1, 0x3c, 0x80, 0x95, 0x1d, 0xbe, 0x40, 0x26, 0x21, 0xbe,
  0xc8, 0x94, 0x1e, 0x3e, 0x40, 0x53, 0x65, 0x3c, 0xc0, 0x6a, 0x5b, 0x3e,
  0xd0, 0x62, 0x6c, 0xbd, 0x80, 0xb6, 0xba, 0xbb, 0x40, 0x0e, 0x78, 0xbc,
  0xa0, 0x5f, 0x08, 0x3e, 0xcc, 0xd0, 0x78, 0xbe, 0xb8, 0x42, 0x22, 0xbe,
  0x8c, 0x54, 0x5a, 0x3e, 0xa0, 0x0c, 0x08, 0xbd, 0x40, 0xce, 0x2f, 0x3c,
  0x68, 0x78, 0xa9, 0xbd, 0x78, 0x9e, 0xe7, 0xbd, 0x10, 0x55, 0xeb, 0xbd,
  0x9c, 0x0c, 0x3f, 0xbe, 0x88, 0x53, 0x8a, 0x3d, 0x70, 0xb3, 0x52, 0xbd,
  0x90, 0xcb, 0x48, 0xbd, 0xac, 0x26, 0x5a, 0x3e, 0xf0, 0xca, 0xc9, 0x3d,
  0xb0, 0xc2, 0x55, 0xbe, 0x2c, 0x0f, 0x2b, 0xbe, 0x80, 0x44, 0xa6, 0xbd,
  0x78, 0x2a, 0xc9, 0x3d, 0xd0, 0x3d, 0x8f, 0x3d, 0x00, 0xb4, 0x4b, 0xba,
  0x18, 0xb9, 0xd9, 0x3d, 0x78, 0x78, 0x67, 0xbe, 0x80, 0xe8, 0xd1, 0x3b,
  0x33, 0x52, 0x41, 0x3d, 0x93, 0xc0, 0xa9, 0xbd, 0xf0, 0xe8, 0x74, 0xbd,
  0x0b, 0xcf, 0xe9, 0x3d, 0x63, 0x95, 0xd7, 0xbd, 0x10, 0xc2, 0x87, 0x3d,
  0xc8, 0xa6, 0xe9, 0x3d, 0x88, 0xa3, 0xcf, 0xbd, 0x60, 0x9a, 0xa7, 0xbc,
  0x2d, 0x8e, 0xe3, 0x3d, 0xe8, 0x10, 0xc7, 0x3d, 0x34, 0x4a, 0x42, 0x3e,
  0xdd, 0x12, 0x85, 0xbd, 0x6a, 0xd6, 0x55, 0x3e, 0x60, 0xb5, 0x58, 0xbe,
  0x60, 0x43, 0x2c, 0x3d, 0x08, 0xf3, 0x3f, 0x3d, 0x5c, 0xdd, 0x6d, 0x3e,
  0x62, 0xc2, 0xc3, 0x3d, 0xfb, 0x75, 0x31, 0xbe, 0xf9, 0x6a, 0xa9, 0xbd,
  0x88, 0x0e, 0xf9, 0x3d, 0x45, 0x6e, 0x3c, 0x3e, 0x44, 0xe9, 0x15, 0x3e,
  0x1a, 0x7f, 0xe1, 0xbd, 0x60, 0xa0, 0x7a, 0x3d, 0x8e, 0xcb, 0xc5, 0xbd,
  0xa8, 0x62, 0xea, 0x3d, 0x8c, 0xe2, 0x8c, 0xbd, 0x98, 0x1a, 0x94, 0xbe,
  0xc4, 0x92, 0xd3, 0x3b, 0x78, 0x7d, 0xdf, 0xbd, 0xf4, 0xe0, 0x22, 0xbe,
  0x78, 0x4e, 0x73, 0xbe, 0x80, 0x15, 0x08, 0xbd, 0x20, 0x31, 0x80, 0x3c,
  0x08, 0x61, 0x92, 0x3d, 0xf0, 0xad, 0x85, 0x3d, 0x70, 0xe7, 0x0e, 0x3e,
  0x68, 0x60, 0xd2, 0xbd, 0xa8, 0xb3, 0xd8, 0x3d, 0xa0, 0x26, 0xe7, 0x3c,
  0xc0, 0xeb, 0x9c, 0x3d, 0xb8, 0x5a, 0xbd, 0xbd, 0x10, 0x95, 0x02, 0xbe,
  0xf0, 0xd8, 0x0c, 0x3d, 0x20, 0x5b, 0xce, 0xbd, 0xf8, 0x47, 0xff, 0xbd,
  0x24, 0x5e, 0x75, 0x3e, 0xa4, 0xff, 0x49, 0x3e, 0xd0, 0x11, 0x87, 0xbd,
  0x38, 0x04, 0x08, 0xbe, 0x80, 0xd7, 0x32, 0xbe, 0xfc, 0x71, 0x26, 0x3e,
  0xbc, 0xd3, 0x21, 0x3e, 0xc0, 0xb3, 0x3d, 0xbc, 0x90, 0x16, 0x4b, 0xbd,
  0xe4, 0x1e, 0x59, 0x3e, 0x70, 0x47, 0x11, 0xbe, 0xf0, 0x99, 0x19, 0x3d,
  0xe0, 0x30, 0xfa, 0x3c, 0x18, 0xf7, 0xbc, 0x3d, 0x38, 0xa8, 0x77, 0xbe,
  0xc8, 0xdb, 0x4b, 0xbe, 0xb0, 0xf9, 0x55, 0xbd, 0x54, 0x34, 0x77, 0xbe,
  0x1c, 0xa2, 0x31, 0x3e, 0x00, 0x9b, 0xa1, 0xbb, 0x80, 0xf3, 0x9c, 0x3d,
  0xc8, 0x05, 0x4f, 0xbe, 0x10, 0xd7, 0x2c, 0x3d, 0xc0, 0x3d, 0x11, 0xbd,
  0xb8, 0x46, 0x80, 0xbd, 0x04, 0x0e, 0x77, 0x3e, 0x94, 0x79, 0x27, 0xbe,
  0xb8, 0xef, 0xe3, 0x3d, 0x58, 0x58, 0x80, 0xbd, 0x28, 0x75, 0x4c, 0xbe,
  0x10, 0x01, 0x45, 0x3e, 0x90, 0xc0, 0x79, 0x3d, 0xe0, 0x53, 0xb2, 0xbc,
  0xc0, 0x47, 0x05, 0xbc, 0xbc, 0xa1, 0x69, 0xbe, 0xd0, 0x91, 0x38, 0xbd,
  0xd0, 0x64, 0x31, 0xbd, 0xcc, 0x4f, 0x49, 0x3e, 0x6c, 0xf5, 0x7f, 0x3e,
  0x90, 0x20, 0x6b, 0x3d, 0x70, 0x6b, 0x40, 0x3e, 0xa4, 0x2c, 0x50, 0xbe,
  0x50, 0xb3, 0xe4, 0x3d, 0xc0, 0xf4, 0x55, 0xbc, 0x84, 0x2f, 0x71, 0x3e,
  0x80, 0x97, 0x60, 0xbc, 0x3c, 0x78, 0x1d, 0xbe, 0xa0, 0xfb, 0x18, 0x3e,
  0x1d, 0x9f, 0x78, 0x3e, 0xc3, 0xb2, 0x81, 0x3e, 0x30, 0xd4, 0xba, 0xbd,
  0x80, 0xe0, 0x81, 0x3e, 0xc4, 0x04, 0x0c, 0x3f, 0x11, 0xf0, 0x3d, 0xbe,
  0x50, 0x1c, 0x20, 0x3d, 0x38, 0xb1, 0x61, 0x3e, 0xb4, 0x47, 0x64, 0xbe,
  0xef, 0xfd, 0x80, 0x3e, 0xb6, 0xd0, 0xef, 0x3c, 0xa2, 0xc0, 0x95, 0x3d,
  0x7e, 0x0e, 0xa3, 0x3d, 0x08, 0x77, 0x85, 0xbd, 0x40, 0x70, 0x56, 0x3d,
  0x28, 0x57, 0xb4, 0x3d, 0xf4, 0x0e, 0x30, 0x3e, 0x98, 0x16, 0x8d, 0x3d,
  0xf5, 0x97, 0x87, 0x3e, 0xdc, 0xb4, 0x70, 0x3e, 0x27, 0x8f, 0x17, 0x3e,
  0x70, 0xe7, 0x9f, 0xbd, 0xcc, 0x9b, 0x51, 0x3e, 0xb8, 0xf4, 0x39, 0xbe,
  0x51, 0x37, 0x09, 0x3e, 0x00, 0xdd, 0x76, 0x3e, 0x19, 0x6c, 0xd5, 0xbd,
  0xee, 0xe3, 0x43, 0xbe, 0xe7, 0xeb, 0x49, 0xbd, 0xd0, 0xf6, 0x50, 0x3e,
  0x2d, 0x26, 0x04, 0x3e, 0x20, 0x44, 0x4e, 0xbd, 0xb3, 0xbf, 0x7b, 0x3b,
  0x0c, 0xc6, 0xdf, 0x39, 0x58, 0x43, 0x80, 0x3d, 0xd1, 0x7a, 0xe8, 0xbd,
  0x75, 0xaa, 0xbc, 0x3d, 0x24, 0x21, 0x13, 0xbe, 0xa4, 0xc1, 0x44, 0x3e,
  0x70, 0xd2, 0x8b, 0xbd, 0xdc, 0xb5, 0x39, 0x3e, 0xee, 0xf0, 0xf9, 0xbd,
  0x1b, 0xe0, 0x81, 0x3e, 0x74, 0xfd, 0xba, 0x3d, 0x5d, 0x38, 0x4e, 0x3d,
  0xbb, 0xfb, 0x0a, 0x3d, 0x40, 0x97, 0x3a, 0x3d, 0x70, 0x03, 0xbd, 0x3d,
  0x71, 0x3b, 0x76, 0xbb, 0x48, 0x02, 0x88, 0xbd, 0x02, 0xbb, 0x4b, 0x3e,
  0x4d, 0x00, 0xd4, 0xbd, 0x18, 0x16, 0x82, 0x3d, 0x20, 0x6a, 0x90, 0x3c,
  0x58, 0x6f, 0x3d, 0x3e, 0x68, 0xf8, 0x06, 0x3e, 0xde, 0xcd, 0x38, 0xbe,
  0xd0, 0x43, 0x23, 0xbe, 0x71, 0xbf, 0xcf, 0xbd, 0x0d, 0x25, 0x82, 0x3e,
  0x00, 0xda, 0x54, 0xbe, 0x64, 0x01, 0xf6, 0x3e, 0x38, 0x61, 0x68, 0x3e,
  0xc0, 0xcd, 0xe6, 0x3c, 0xa1, 0xc2, 0x68, 0x3e, 0x93, 0xd3, 0xfc, 0x3d,
  0x24, 0xeb, 0x32, 0x3e, 0x43, 0xed, 0x4f, 0xbd, 0xaa, 0x23, 0xdb, 0xbd,
  0xc5, 0x95, 0x0b, 0xbe, 0x00, 0xc1, 0x05, 0xbb, 0x50, 0x21, 0xa2, 0xbd,
  0xd0, 0x80, 0x42, 0x3e, 0x44, 0xd0, 0xd1, 0x3c, 0xe8, 0x02, 0xe4, 0x3d,
  0x38, 0x1f, 0x47, 0x3e, 0x79, 0xda, 0x2c, 0xbe, 0xc6, 0x38, 0x57, 0xbe,
  0x30, 0x76, 0x92, 0xbd, 0x88, 0x18, 0xfb, 0x3d, 0xac, 0x1d, 0xe3, 0xbd,
  0x80, 0x80, 0x98, 0xbb, 0xde, 0xcd, 0x3d, 0xbe, 0xc1, 0xf8, 0x83, 0xbe,
  0xd5, 0x96, 0x51, 0x3e, 0x40, 0x6b, 0x35, 0x3d, 0xb3, 0xa8, 0x4f, 0xbd,
  0xc0, 0x9b, 0x26, 0xbd, 0x09, 0x76, 0x1c, 0x3c, 0x34, 0xa1, 0x38, 0x3e,
  0x3d, 0x4a, 0x59, 0xbe, 0xd6, 0x54, 0x0e, 0xbe, 0x17, 0xf6, 0x15, 0x3e,
  0x30, 0x0d, 0xaa, 0xbd, 0x5d, 0xc0, 0x5b, 0x3b, 0xb4, 0xeb, 0x76, 0xbe,
  0x90, 0x57, 0x1a, 0x3e, 0xb1, 0x79, 0x1f, 0xbe, 0xc8, 0x32, 0x5e, 0xbe,
  0xb0, 0xf5, 0x96, 0xbc, 0x87, 0x4c, 0x8e, 0x3e, 0xde, 0x2b, 0x1f, 0x3e,
  0x40, 0x87, 0x96, 0xbd, 0x80, 0x94, 0xe0, 0xbd, 0x10, 0x04, 0x79, 0x3e,
  0xb5, 0xef, 0xa4, 0x3c, 0xce, 0x47, 0x18, 0x3e, 0x5e, 0x16, 0x70, 0x3e,
  0x3f, 0xc5, 0x1b, 0x3e, 0x1c, 0x80, 0x58, 0x3e, 0x70, 0xe2, 0xfd, 0xbd,
  0x6c, 0x89, 0x14, 0x3e, 0x7f, 0x84, 0x58, 0x3d, 0x50, 0x2e, 0x66, 0xbe,
  0x0d, 0x29, 0x61, 0x3e, 0x68, 0x0d, 0x2c, 0x3d, 0x79, 0xee, 0xae, 0xbd,
  0xdc, 0x3f, 0x05, 0x3e, 0xbf, 0x9b, 0xd0, 0xbd, 0x48, 0x6b, 0x61, 0xbe,
  0x08, 0x5c, 0x69, 0xbd, 0xd8, 0x39, 0x72, 0xbe, 0x30, 0x06, 0x25, 0x3d,
  0x6e, 0xfd, 0x1c, 0x3c, 0xfe, 0xad, 0x5f, 0x3e, 0x38, 0x45, 0x8a, 0x3e,
  0xda, 0x96, 0x35, 0xbd, 0x98, 0x51, 0xdb, 0xbd, 0x00, 0x39, 0xcd, 0x3c,
  0x7c, 0x65, 0x46, 0xbe, 0x5c, 0x8d, 0x10, 0x3e, 0x24, 0x91, 0x55, 0xbe,
  0xf0, 0x16, 0xa8, 0x3d, 0xf8, 0x6a, 0x8f, 0xbd, 0x30, 0xfa, 0x63, 0xbe,
  0x80, 0xb5, 0x73, 0xbe, 0x24, 0xc2, 0x23, 0x3e, 0x44, 0x68, 0x6a, 0x3e,
  0x00, 0xc1, 0x87, 0x3c, 0x88, 0x68, 0x10, 0xbe, 0xfc, 0xd9, 0x01, 0x3e,
  0x80, 0xda, 0x7e, 0x3c, 0x34, 0xd8, 0x5f, 0xbe, 0xa8, 0xb9, 0x0a, 0xbe,
  0x88, 0xe7, 0xbd, 0xbd, 0x38, 0xfc, 0x7f, 0xbe, 0x70, 0x06, 0x62, 0x3d,
  0x08, 0xea, 0xcd, 0xbd, 0x78, 0x4e, 0xba, 0x3d, 0x30, 0x97, 0x6f, 0x3d,
  0xb8, 0x02, 0x67, 0x3e, 0x54, 0x84, 0x06, 0x3e, 0xe0, 0xc4, 0x38, 0x3e,
  0x60, 0xad, 0x00, 0x3d, 0x20, 0xf4, 0xd4, 0xbd, 0x80, 0xe3, 0x1d, 0x3d,
  0x98, 0x80, 0x2c, 0xbe, 0x58, 0x7d, 0xe1, 0x3d, 0x80, 0xc0, 0xfa, 0x3b,
  0xe0, 0x31, 0xd7, 0xbc, 0x2c, 0x52, 0x45, 0xbd, 0x5a, 0xd2, 0x5b, 0xbe,
  0xa8, 0x4b, 0xf3, 0xbd, 0x8a, 0x3e, 0xca, 0xbc, 0x6c, 0x9f, 0xfb, 0xbd,
  0x78, 0x10, 0x9d, 0x3d, 0x48, 0x7e, 0xb3, 0xbd, 0x60, 0x72, 0xcc, 0x3c,
  0xf0, 0xb1, 0x81, 0xbd, 0x92, 0x2d, 0x27, 0x3e, 0x4f, 0x0a, 0x3e, 0x3d,
  0xdc, 0x52, 0x72, 0x3e, 0xf6, 0x57, 0x8e, 0x3c, 0xf0, 0x67, 0xd7, 0x3c,
  0x38, 0x99, 0xd6, 0x3d, 0xa0, 0xd3, 0xeb, 0xbd, 0x70, 0x83, 0x6b, 0xbd,
  0x40, 0x2d, 0x64, 0x3c, 0xa9, 0xed, 0xe1, 0xbc, 0x6a, 0x8b, 0x41, 0x3e,
  0xfd, 0x5f, 0x31, 0x3e, 0x20, 0xd1, 0xc3, 0x3c, 0x69, 0x95, 0xac, 0xbc,
  0x14, 0xb4, 0x7a, 0xbe, 0x78, 0x27, 0x63, 0x3e, 0x40, 0x4c, 0xc9, 0x3c,
  0x77, 0x94, 0x25, 0xbe, 0x2c, 0x37, 0x9c, 0xbb, 0x0e, 0x76, 0xc6, 0x3c,
  0x83, 0xbc, 0x5b, 0xbe, 0x51, 0xef, 0x6a, 0x3e, 0xc0, 0x74, 0x47, 0xbc,
  0x0c, 0xd2, 0x24, 0x3e, 0x58, 0xd0, 0x9c, 0x3d, 0xe4, 0x51, 0x4f, 0x3e,
  0xec, 0xd8, 0x60, 0xbe, 0x04, 0x19, 0x2b, 0x3e, 0x4c, 0x63, 0x30, 0x3e,
  0xa4, 0x08, 0x53, 0x3e, 0x10, 0x46, 0xaf, 0xbd, 0x40, 0xc5, 0x1a, 0x3e,
  0x08, 0x96, 0x2d, 0xbe, 0x90, 0xbd, 0xec, 0xbd, 0x08, 0xd3, 0x70, 0xbe,
  0x60, 0x94, 0x9f, 0xbd, 0x34, 0xf4, 0x04, 0x3e, 0x80, 0x79, 0x48, 0x3d,
  0x6c, 0x3a, 0x63, 0xbe, 0xf0, 0xa1, 0x64, 0xbd, 0x00, 0x0a, 0x63, 0xbe,
  0xc0, 0xd6, 0x6b, 0x3e, 0x68, 0x4a, 0x14, 0x3e, 0xc0, 0x49, 0x7e, 0xbe,
  0x60, 0xeb, 0x97, 0x3d, 0x90, 0x48, 0x2a, 0xbd, 0x18, 0x04, 0x48, 0x3e,
  0xdc, 0xc0, 0x1c, 0xbe, 0xf0, 0x84, 0xda, 0xbd, 0x64, 0xb1, 0x44, 0xbe,
  0xe8, 0x78, 0x0a, 0x3e, 0xf0, 0xb3, 0xa8, 0x3d, 0x00, 0xc8, 0x14, 0x3d,
  0x80, 0x0f, 0x4d, 0xbe, 0xa0, 0x3c, 0xb3, 0xbd, 0x28, 0xbf, 0x52, 0xbe,
  0xa0, 0x97, 0x36, 0xbe, 0x88, 0x00, 0xa4, 0xbd, 0x88, 0x77, 0x0a, 0xbe,
  0x44, 0xa6, 0x11, 0xbe, 0xd0, 0x4d, 0xb7, 0xbd, 0x98, 0x7f, 0x71, 0xbe,
  0xf8, 0x60, 0x44, 0xbe, 0x68, 0xe2, 0x54, 0xbe, 0xe4, 0xe2, 0x1f, 0x3e,
  0x60, 0x62, 0x4c, 0x3e, 0xc0, 0x7d, 0x01, 0x3d, 0x90, 0xe3, 0x72, 0xbe,
  0x50, 0xa1, 0x11, 0x3e, 0x08, 0x36, 0x79, 0x3e, 0xa4, 0x1a, 0x4a, 0xbe,
  0x98, 0x05, 0xfe, 0x3d, 0x00, 0xe1, 0x80, 0xbd, 0xc0, 0x13, 0x9c, 0xbc,
  0xa0, 0xa3, 0x27, 0xbe, 0xa0, 0xd8, 0x8b, 0xbc, 0x70, 0x57, 0x00, 0x3d,
  0x68, 0x5a, 0xee, 0xbd, 0x74, 0x0e, 0x6b, 0xbe, 0x60, 0xfb, 0xcd, 0x3d,
  0x00, 0x2c, 0xc2, 0xbb, 0xe0, 0x29, 0xb7, 0x3c, 0x0c, 0x07, 0x0a, 0xbe,
  0x2c, 0x8b, 0x19, 0xbe, 0xec, 0x9c, 0x0b, 0xbe, 0xa0, 0xfb, 0x13, 0xbd,
  0xe4, 0x16, 0x1b, 0x3e, 0x4f, 0x43, 0x3c, 0xbd, 0x5f, 0xe9, 0x7e, 0xbd,
  0x2c, 0x4e, 0x27, 0x3e, 0x08, 0xf7, 0x17, 0x3e, 0x8d, 0x4e, 0xdd, 0x3e,
  0x4f, 0xd9, 0xec, 0x3c, 0x70, 0x16, 0x55, 0x3d, 0x50, 0x58, 0x99, 0xbd,
  0xf0, 0x0e, 0x62, 0x3d, 0xaf, 0x53, 0xc4, 0xbd, 0xff, 0x14, 0xec, 0x3d,
  0xce, 0xf4, 0xf1, 0x3d, 0x1b, 0x33, 0x56, 0xbd, 0x05, 0x39, 0xc3, 0x3d,
  0x5c, 0x1c, 0x1e, 0xbe, 0x80, 0xb6, 0x27, 0x3c, 0x6c, 0xe7, 0x81, 0x3c,
  0xd0, 0x7c, 0x35, 0xbd, 0x06, 0x4a, 0x9e, 0xbd, 0xa5, 0xe4, 0x71, 0xbd,
  0xea, 0xba, 0x60, 0xbe, 0x58, 0xda, 0x5c, 0x3e, 0x5f, 0xa2, 0x1c, 0x3e,
  0xe8, 0x7e, 0x9c, 0x3d, 0xa9, 0x11, 0x2a, 0xbd, 0x90, 0x3d, 0x8a, 0x3d,
  0x7f, 0x66, 0x9b, 0x3d, 0x65, 0xe9, 0x0d, 0x3e, 0x3a, 0x5d, 0x42, 0x3b,
  0x2f, 0xd2, 0x72, 0x3e, 0x73, 0x59, 0xe3, 0xbd, 0x38, 0xe5, 0xdd, 0x3d,
  0x5a, 0xfd, 0xff, 0xff, 0x04, 0x00, 0x00, 0x00, 0x00, 0x01, 0x00, 0x00,
  0x73, 0xb7, 0x64, 0xbd, 0x1b, 0xbb, 0xc2, 0x3e, 0x39, 0xf7, 0x10, 0x3e,
  0xa7, 0xbb, 0x96, 0x3e, 0xd8, 0xda, 0xd7, 0xbd, 0x5c, 0x6d, 0xdc, 0xbd,
  0x6a, 0xf2, 0x9b, 0x3e, 0x8d, 0x6f, 0xba, 0x3e, 0xa5, 0x95, 0xf4, 0x3e,
  0x95, 0x67, 0x7d, 0xbe, 0x85, 0x78, 0x21, 0xbe, 0xf8, 0xb9, 0x16, 0x3e,
  0x3c, 0x37, 0x8c, 0xbe, 0x4f, 0xbb, 0x99, 0xbe, 0xe4, 0x15, 0x4d, 0xbe,
  0xe6, 0xb1, 0x91, 0xbe, 0x63, 0x48, 0x66, 0xbe, 0xa4, 0xf4, 0xe4, 0xbd,
  0x9a, 0x32, 0x44, 0x3c, 0x48, 0x56, 0xee, 0x3c, 0xe0, 0x84, 0x94, 0xbd,
  0x11, 0xb7, 0x9d, 0x3e, 0x0f, 0x66, 0x8a, 0x3d, 0x6d, 0xc2, 0xe9, 0xbd,
  0x81, 0xa8, 0x2e, 0xbe, 0x6c, 0x26, 0x94, 0x3e, 0xe6, 0x4b, 0x78, 0x3d,
  0xe8, 0xec, 0xfb, 0x3c, 0xd8, 0x1a, 0xab, 0xbd, 0x4e, 0x2b, 0x47, 0xbe,
  0x7a, 0x37, 0x27, 0x3e, 0x64, 0x38, 0xd3, 0xbe, 0x89, 0x4e, 0x3f, 0x3e,
  0xe7, 0xcc, 0x08, 0x3e, 0xde, 0xef, 0x2a, 0xbe, 0x12, 0xf4, 0xba, 0xbe,
  0x0c, 0xdf, 0xe7, 0xbd, 0xb6, 0xb0, 0x16, 0x3e, 0xa3, 0xe0, 0xa2, 0x3e,
  0xa5, 0x0a, 0x01, 0x3d, 0x37, 0x08, 0x0e, 0x3e, 0xf9, 0xb0, 0xf0, 0x3c,
  0x86, 0xb3, 0x0a, 0x3e, 0xc2, 0x87, 0xae, 0xbe, 0xb7, 0x01, 0x42, 0x3e,
  0xe6, 0x5f, 0xcd, 0x3d, 0xf5, 0x39, 0xab, 0xbe, 0x0c, 0xb8, 0x56, 0xbe,
  0xa1, 0xb5, 0x54, 0x3e, 0x35, 0x53, 0x9a, 0x3e, 0x2a, 0xaf, 0xb4, 0xbe,
  0xc0, 0x9c, 0xce, 0xbc, 0xab, 0xda, 0xc3, 0x3e, 0x7d, 0x2c, 0x23, 0xbc,
  0x40, 0xf7, 0xcb, 0x3e, 0x38, 0xed, 0x88, 0x3e, 0x3c, 0x2f, 0xcf, 0xbe,
  0xcb, 0x19, 0xb0, 0x3e, 0x1e, 0xeb, 0xcb, 0x3e, 0x9e, 0xc5, 0x0e, 0xbe,
  0x08, 0x3d, 0x3e, 0x3e, 0xa2, 0xd2, 0x0b, 0x3e, 0x58, 0x4f, 0x81, 0xbe,
  0xc0, 0x0a, 0x85, 0xbb, 0x66, 0xfe, 0xff, 0xff, 0x04, 0x00, 0x00, 0x00,
  0x80, 0x00, 0x00, 0x00, 0x97, 0xc6, 0xb5, 0x3e, 0x73, 0xc9, 0xa4, 0x3e,
  0x00, 0x00, 0x00, 0x00, 0x2b, 0xaa, 0xd0, 0x3e, 0xcf, 0xa1, 0x33, 0x3f,
  0x2d, 0xc7, 0xc1, 0xbe, 0x00, 0x00, 0x00, 0x00, 0x00, 0x00, 0x00, 0x00,
  0x00, 0x00, 0x00, 0x00, 0x25, 0xa1, 0xc5, 0x3e, 0x43, 0x79, 0x70, 0x3e,
  0x95, 0x0e, 0xf1, 0xbb, 0x3b, 0x35, 0x4c, 0x3e, 0xa6, 0x44, 0xbc, 0x3e,
  0x00, 0x00, 0x00, 0x00, 0x00, 0x00, 0x00, 0x00, 0xf5, 0xa0, 0x7f, 0x3e,
  0x00, 0x00, 0x00, 0x00, 0x84, 0x57, 0x0f, 0x3e, 0xfd, 0x7d, 0x51, 0xbd,
  0x6a, 0x2f, 0xf6, 0xbe, 0x00, 0x00, 0x00, 0x00, 0x58, 0xdf, 0xca, 0x3e,
  0x00, 0x00, 0x00, 0x00, 0xf3, 0xf1, 0xd7, 0xbe, 0x00, 0x00, 0x00, 0x00,
  0x25, 0xaa, 0xd6, 0x3e, 0x27, 0xf0, 0xe1, 0x3e, 0x0c, 0x0d, 0x2a, 0x3e,
  0x97, 0x54, 0x41, 0x3f, 0x28, 0x2a, 0x91, 0x3e, 0x00, 0x00, 0x00, 0x00,
  0xf2, 0xfe, 0xff, 0xff, 0x04, 0x00, 0x00, 0x00, 0x00, 0x01, 0x00, 0x00,
  0x3d, 0x2c, 0xa2, 0xbc, 0xe9, 0xb7, 0xb1, 0x3e, 0x00, 0x00, 0x00, 0x00,
  0xd3, 0x8a, 0xc7, 0x3e, 0x7c, 0xf8, 0xbc, 0x3e, 0x00, 0x00, 0x00, 0x00,
  0x00, 0x00, 0x00, 0x00, 0xc0, 0x50, 0xfe, 0x3e, 0x00, 0x05, 0x30, 0xbc,
  0x00, 0x00, 0x00, 0x00, 0x00, 0x00, 0x00, 0x00, 0xdc, 0x47, 0x84, 0xbc,
  0x70, 0xf2, 0xbc, 0x3e, 0x56, 0x70, 0xbc, 0xbe, 0x00, 0x00, 0x00, 0x00,
  0x7e, 0x77, 0xbe, 0x3e, 0x80, 0x54, 0xca, 0x3e, 0xb5, 0x34, 0x1b, 0xbe,
  0x59, 0xeb, 0x04, 0xbd, 0x80, 0x53, 0x42, 0xbc, 0xf6, 0x0f, 0xbb, 0x3e,
  0x60, 0x9b, 0xbe, 0x3e, 0x67, 0xa2, 0xb5, 0xbe, 0x00, 0x00, 0x00, 0x00,
  0x58, 0xb4, 0x84, 0x3e, 0xa3, 0x15, 0xa1, 0xbe, 0x00, 0x00, 0x00, 0x00,
  0x9b, 0x6c, 0xc0, 0x3e, 0x6f, 0x35, 0xaf, 0xbb, 0xbb, 0xa4, 0xbe, 0x3e,
  0x50, 0x8c, 0x0a, 0xbc, 0x19, 0x65, 0xdf, 0xbc, 0xc6, 0x59, 0x01, 0x3f,
  0x1b, 0xfd, 0xbe, 0x3e, 0x00, 0x00, 0x00, 0x00, 0x00, 0x00, 0x00, 0x00,
  0x3d, 0xec, 0xb2, 0xbc, 0x89, 0xfa, 0x12, 0xbc, 0x59, 0xe1, 0xc2, 0x3e,
  0xa4, 0xf8, 0xbf, 0x3e, 0xde, 0xfd, 0xc1, 0x3e, 0xb2, 0x42, 0xb3, 0x3e,
  0x7b, 0xd6, 0x52, 0xbc, 0xe8, 0x4e, 0x52, 0xbc, 0x00, 0x00, 0x00, 0x00,
  0x00, 0x00, 0x00, 0x00, 0x00, 0x00, 0x00, 0x00, 0x39, 0x56, 0xc5, 0x3e,
  0xc6, 0x58, 0xca, 0x3e, 0x50, 0x0f, 0xc0, 0x3e, 0x00, 0x00, 0x00, 0x00,
  0x00, 0x00, 0x00, 0x00, 0x94, 0x8f, 0xb3, 0xbe, 0x00, 0x00, 0x00, 0x00,
  0x00, 0x00, 0x00, 0x00, 0x54, 0xd1, 0xbe, 0x3e, 0x58, 0x26, 0xbc, 0x3e,
  0x35, 0x25, 0xd0, 0xbc, 0xad, 0x34, 0xc3, 0x3e, 0x00, 0x00, 0x00, 0x00,
  0xcc, 0x82, 0x98, 0xbe, 0x00, 0x00, 0x00, 0x00, 0x00, 0x00, 0x00, 0x00,
  0xb6, 0x36, 0xc8, 0x3e, 0x00, 0x00, 0x06, 0x00, 0x08, 0x00, 0x04, 0x00,
  0x06, 0x00, 0x00, 0x00, 0x04, 0x00, 0x00, 0x00, 0x04, 0x00, 0x00, 0x00,
  0xaa, 0x74, 0xbd, 0x3e, 0xe0, 0xfa, 0xff, 0xff, 0xe4, 0xfa, 0xff, 0xff,
  0x0f, 0x00, 0x00, 0x00, 0x4d, 0x4c, 0x49, 0x52, 0x20, 0x43, 0x6f, 0x6e,
  0x76, 0x65, 0x72, 0x74, 0x65, 0x64, 0x2e, 0x00, 0x01, 0x00, 0x00, 0x00,
  0x14, 0x00, 0x00, 0x00, 0x00, 0x00, 0x0e, 0x00, 0x18, 0x00, 0x14, 0x00,
  0x10, 0x00, 0x0c, 0x00, 0x08, 0x00, 0x04, 0x00, 0x0e, 0x00, 0x00, 0x00,
  0x14, 0x00, 0x00, 0x00, 0x1c, 0x00, 0x00, 0x00, 0xd8, 0x00, 0x00, 0x00,
  0xdc, 0x00, 0x00, 0x00, 0xe0, 0x00, 0x00, 0x00, 0x04, 0x00, 0x00, 0x00,
  0x6d, 0x61, 0x69, 0x6e, 0x00, 0x00, 0x00, 0x00, 0x03, 0x00, 0x00, 0x00,
  0x80, 0x00, 0x00, 0x00, 0x38, 0x00, 0x00, 0x00, 0x04, 0x00, 0x00, 0x00,
  0x9a, 0xff, 0xff, 0xff, 0x10, 0x00, 0x00, 0x00, 0x00, 0x00, 0x00, 0x08,
  0x0c, 0x00, 0x00, 0x00, 0x10, 0x00, 0x00, 0x00, 0x5c, 0xfb, 0xff, 0xff,
  0x01, 0x00, 0x00, 0x00, 0x09, 0x00, 0x00, 0x00, 0x03, 0x00, 0x00, 0x00,
  0x08, 0x00, 0x00, 0x00, 0x06, 0x00, 0x00, 0x00, 0x01, 0x00, 0x00, 0x00,
  0xca, 0xff, 0xff, 0xff, 0x10, 0x00, 0x00, 0x00, 0x00, 0x00, 0x00, 0x08,
  0x10, 0x00, 0x00, 0x00, 0x14, 0x00, 0x00, 0x00, 0xba, 0xff, 0xff, 0xff,
  0x00, 0x00, 0x00, 0x01, 0x01, 0x00, 0x00, 0x00, 0x08, 0x00, 0x00, 0x00,
  0x03, 0x00, 0x00, 0x00, 0x07, 0x00, 0x00, 0x00, 0x05, 0x00, 0x00, 0x00,
  0x02, 0x00, 0x00, 0x00, 0x00, 0x00, 0x0e, 0x00, 0x16, 0x00, 0x00, 0x00,
  0x10, 0x00, 0x0c, 0x00, 0x0b, 0x00, 0x04, 0x00, 0x0e, 0x00, 0x00, 0x00,
  0x18, 0x00, 0x00, 0x00, 0x00, 0x00, 0x00, 0x08, 0x18, 0x00, 0x00, 0x00,
  0x1c, 0x00, 0x00, 0x00, 0x00, 0x00, 0x06, 0x00, 0x08, 0x00, 0x07, 0x00,
  0x06, 0x00, 0x00, 0x00, 0x00, 0x00, 0x00, 0x01, 0x01, 0x00, 0x00, 0x00,
  0x07, 0x00, 0x00, 0x00, 0x03, 0x00, 0x00, 0x00, 0x00, 0x00, 0x00, 0x00,
  0x04, 0x00, 0x00, 0x00, 0x03, 0x00, 0x00, 0x00, 0x01, 0x00, 0x00, 0x00,
  0x09, 0x00, 0x00, 0x00, 0x01, 0x00, 0x00, 0x00, 0x00, 0x00, 0x00, 0x00,
  0x0a, 0x00, 0x00, 0x00, 0xcc, 0x03, 0x00, 0x00, 0x58, 0x03, 0x00, 0x00,
  0xe4, 0x02, 0x00, 0x00, 0x88, 0x02, 0x00, 0x00, 0x38, 0x02, 0x00, 0x00,
  0xe8, 0x01, 0x00, 0x00, 0x98, 0x01, 0x00, 0x00, 0xfc, 0x00, 0x00, 0x00,
  0x60, 0x00, 0x00, 0x00, 0x04, 0x00, 0x00, 0x00, 0x72, 0xfc, 0xff, 0xff,
  0x00, 0x00, 0x00, 0x01, 0x14, 0x00, 0x00, 0x00, 0x1c, 0x00, 0x00, 0x00,
  0x1c, 0x00, 0x00, 0x00, 0x0a, 0x00, 0x00, 0x00, 0x34, 0x00, 0x00, 0x00,
  0x02, 0x00, 0x00, 0x00, 0xff, 0xff, 0xff, 0xff, 0x01, 0x00, 0x00, 0x00,
  0x5c, 0xfc, 0xff, 0xff, 0x19, 0x00, 0x00, 0x00, 0x53, 0x74, 0x61, 0x74,
  0x65, 0x66, 0x75, 0x6c, 0x50, 0x61, 0x72, 0x74, 0x69, 0x74, 0x69, 0x6f,
  0x6e, 0x65, 0x64, 0x43, 0x61, 0x6c, 0x6c, 0x3a, 0x30, 0x00, 0x00, 0x00,
  0x02, 0x00, 0x00, 0x00, 0x01, 0x00, 0x00, 0x00, 0x01, 0x00, 0x00, 0x00,
  0xca, 0xfc, 0xff, 0xff, 0x00, 0x00, 0x00, 0x01, 0x14, 0x00, 0x00, 0x00,
  0x1c, 0x00, 0x00, 0x00, 0x1c, 0x00, 0x00, 0x00, 0x09, 0x00, 0x00, 0x00,
  0x74, 0x00, 0x00, 0x00, 0x02, 0x00, 0x00, 0x00, 0xff, 0xff, 0xff, 0xff,
  0x40, 0x00, 0x00, 0x00, 0xb4, 0xfc, 0xff, 0xff, 0x5b, 0x00, 0x00, 0x00,
  0x73, 0x65, 0x71, 0x75, 0x65, 0x6e, 0x74, 0x69, 0x61, 0x6c, 0x2f, 0x68,
  0x69, 0x64, 0x64, 0x65, 0x6e, 0x5f, 0x6c, 0x61, 0x79, 0x65, 0x72, 0x2f,
  0x4d, 0x61, 0x74, 0x4d, 0x75, 0x6c, 0x3b, 0x73, 0x65, 0x71, 0x75, 0x65,
  0x6e, 0x74, 0x69, 0x61, 0x6c, 0x2f, 0x68, 0x69, 0x64, 0x64, 0x65, 0x6e,
  0x5f, 0x6c, 0x61, 0x79, 0x65, 0x72, 0x2f, 0x52, 0x65, 0x6c, 0x75, 0x3b,
  0x73, 0x65, 0x71, 0x75, 0x65, 0x6e, 0x74, 0x69, 0x61, 0x6c, 0x2f, 0x68,
  0x69, 0x64, 0x64, 0x65, 0x6e, 0x5f, 0x6c, 0x61, 0x79, 0x65, 0x72, 0x2f,
  0x42, 0x69, 0x61, 0x73, 0x41, 0x64, 0x64, 0x00, 0x02, 0x00, 0x00, 0x00,
  0x01, 0x00, 0x00, 0x00, 0x40, 0x00, 0x00, 0x00, 0x62, 0xfd, 0xff, 0xff,
  0x00, 0x00, 0x00, 0x01, 0x14, 0x00, 0x00, 0x00, 0x1c, 0x00, 0x00, 0x00,
  0x1c, 0x00, 0x00, 0x00, 0x08, 0x00, 0x00, 0x00, 0x74, 0x00, 0x00, 0x00,
  0x02, 0x00, 0x00, 0x00, 0xff, 0xff, 0xff, 0xff, 0x20, 0x00, 0x00, 0x00,
  0x4c, 0xfd, 0xff, 0xff, 0x58, 0x00, 0x00, 0x00, 0x73, 0x65, 0x71, 0x75,
  0x65, 0x6e, 0x74, 0x69, 0x61, 0x6c, 0x2f, 0x69, 0x6e, 0x70, 0x75, 0x74,
  0x5f, 0x6c, 0x61, 0x79, 0x65, 0x72, 0x2f, 0x4d, 0x61, 0x74, 0x4d, 0x75,
  0x6c, 0x3b, 0x73, 0x65, 0x71, 0x75, 0x65, 0x6e, 0x74, 0x69, 0x61, 0x6c,
  0x2f, 0x69, 0x6e, 0x70, 0x75, 0x74, 0x5f, 0x6c, 0x61, 0x79, 0x65, 0x72,
  0x2f, 0x52, 0x65, 0x6c, 0x75, 0x3b, 0x73, 0x65, 0x71, 0x75, 0x65, 0x6e,
  0x74, 0x69, 0x61, 0x6c, 0x2f, 0x69, 0x6e, 0x70, 0x75, 0x74, 0x5f, 0x6c,
  0x61, 0x79, 0x65, 0x72, 0x2f, 0x42, 0x69, 0x61, 0x73, 0x41, 0x64, 0x64,
  0x00, 0x00, 0x00, 0x00, 0x02, 0x00, 0x00, 0x00, 0x01, 0x00, 0x00, 0x00,
  0x20, 0x00, 0x00, 0x00, 0x6a, 0xfe, 0xff, 0xff, 0x00, 0x00, 0x00, 0x01,
  0x10, 0x00, 0x00, 0x00, 0x10, 0x00, 0x00, 0x00, 0x07, 0x00, 0x00, 0x00,
  0x2c, 0x00, 0x00, 0x00, 0xd4, 0xfd, 0xff, 0xff, 0x1e, 0x00, 0x00, 0x00,
  0x73, 0x65, 0x71, 0x75, 0x65, 0x6e, 0x74, 0x69, 0x61, 0x6c, 0x2f, 0x6f,
  0x75, 0x74, 0x70, 0x75, 0x74, 0x5f, 0x6c, 0x61, 0x79, 0x65, 0x72, 0x2f,
  0x4d, 0x61, 0x74, 0x4d, 0x75, 0x6c, 0x00, 0x00, 0x02, 0x00, 0x00, 0x00,
  0x01, 0x00, 0x00, 0x00, 0x40, 0x00, 0x00, 0x00, 0xb6, 0xfe, 0xff, 0xff,
  0x00, 0x00, 0x00, 0x01, 0x10, 0x00, 0x00, 0x00, 0x10, 0x00, 0x00, 0x00,
  0x06, 0x00, 0x00, 0x00, 0x2c, 0x00, 0x00, 0x00, 0x20, 0xfe, 0xff, 0xff,
  0x1e, 0x00, 0x00, 0x00, 0x73, 0x65, 0x71, 0x75, 0x65, 0x6e, 0x74, 0x69,
  0x61, 0x6c, 0x2f, 0x68, 0x69, 0x64, 0x64, 0x65, 0x6e, 0x5f, 0x6c, 0x61,
  0x79, 0x65, 0x72, 0x2f, 0x4d, 0x61, 0x74, 0x4d, 0x75, 0x6c, 0x00, 0x00,
  0x02, 0x00, 0x00, 0x00, 0x40, 0x00, 0x00, 0x00, 0x20, 0x00, 0x00, 0x00,
  0x02, 0xff, 0xff, 0xff, 0x00, 0x00, 0x00, 0x01, 0x10, 0x00, 0x00, 0x00,
  0x10, 0x00, 0x00, 0x00, 0x05, 0x00, 0x00, 0x00, 0x2c, 0x00, 0x00, 0x00,
  0x6c, 0xfe, 0xff, 0xff, 0x1d, 0x00, 0x00, 0x00, 0x73, 0x65, 0x71, 0x75,
  0x65, 0x6e, 0x74, 0x69, 0x61, 0x6c, 0x2f, 0x69, 0x6e, 0x70, 0x75, 0x74,
  0x5f, 0x6c, 0x61, 0x79, 0x65, 0x72, 0x2f, 0x4d, 0x61, 0x74, 0x4d, 0x75,
  0x6c, 0x00, 0x00, 0x00, 0x02, 0x00, 0x00, 0x00, 0x20, 0x00, 0x00, 0x00,
  0x02, 0x00, 0x00, 0x00, 0x4e, 0xff, 0xff, 0xff, 0x00, 0x00, 0x00, 0x01,
  0x10, 0x00, 0x00, 0x00, 0x10, 0x00, 0x00, 0x00, 0x04, 0x00, 0x00, 0x00,
  0x3c, 0x00, 0x00, 0x00, 0xb8, 0xfe, 0xff, 0xff, 0x2d, 0x00, 0x00, 0x00,
  0x73, 0x65, 0x71, 0x75, 0x65, 0x6e, 0x74, 0x69, 0x61, 0x6c, 0x2f, 0x69,
  0x6e, 0x70, 0x75, 0x74, 0x5f, 0x6c, 0x61, 0x79, 0x65, 0x72, 0x2f, 0x42,
  0x69, 0x61, 0x73, 0x41, 0x64, 0x64, 0x2f, 0x52, 0x65, 0x61, 0x64, 0x56,
  0x61, 0x72, 0x69, 0x61, 0x62, 0x6c, 0x65, 0x4f, 0x70, 0x00, 0x00, 0x00,
  0x01, 0x00, 0x00, 0x00, 0x20, 0x00, 0x00, 0x00, 0xa6, 0xff, 0xff, 0xff,
  0x00, 0x00, 0x00, 0x01, 0x10, 0x00, 0x00, 0x00, 0x10, 0x00, 0x00, 0x00,
  0x03, 0x00, 0x00, 0x00, 0x3c, 0x00, 0x00, 0x00, 0x10, 0xff, 0xff, 0xff,
  0x2e, 0x00, 0x00, 0x00, 0x73, 0x65, 0x71, 0x75, 0x65, 0x6e, 0x74, 0x69,
  0x61, 0x6c, 0x2f, 0x68, 0x69, 0x64, 0x64, 0x65, 0x6e, 0x5f, 0x6c, 0x61,
  0x79, 0x65, 0x72, 0x2f, 0x42, 0x69, 0x61, 0x73, 0x41, 0x64, 0x64, 0x2f,
  0x52, 0x65, 0x61, 0x64, 0x56, 0x61, 0x72, 0x69, 0x61, 0x62, 0x6c, 0x65,
  0x4f, 0x70, 0x00, 0x00, 0x01, 0x00, 0x00, 0x00, 0x40, 0x00, 0x00, 0x00,
  0x00, 0x00, 0x16, 0x00, 0x18, 0x00, 0x14, 0x00, 0x00, 0x00, 0x10, 0x00,
  0x0c, 0x00, 0x08, 0x00, 0x00, 0x00, 0x00, 0x00, 0x00, 0x00, 0x07, 0x00,
  0x16, 0x00, 0x00, 0x00, 0x00, 0x00, 0x00, 0x01, 0x10, 0x00, 0x00, 0x00,
  0x10, 0x00, 0x00, 0x00, 0x02, 0x00, 0x00, 0x00, 0x3c, 0x00, 0x00, 0x00,
  0x80, 0xff, 0xff, 0xff, 0x2e, 0x00, 0x00, 0x00, 0x73, 0x65, 0x71, 0x75,
  0x65, 0x6e, 0x74, 0x69, 0x61, 0x6c, 0x2f, 0x6f, 0x75, 0x74, 0x70, 0x75,
  0x74, 0x5f, 0x6c, 0x61, 0x79, 0x65, 0x72, 0x2f, 0x42, 0x69, 0x61, 0x73,
  0x41, 0x64, 0x64, 0x2f, 0x52, 0x65, 0x61, 0x64, 0x56, 0x61, 0x72, 0x69,
  0x61, 0x62, 0x6c, 0x65, 0x4f, 0x70, 0x00, 0x00, 0x01, 0x00, 0x00, 0x00,
  0x01, 0x00, 0x00, 0x00, 0x00, 0x00, 0x16, 0x00, 0x1c, 0x00, 0x18, 0x00,
  0x00, 0x00, 0x14, 0x00, 0x10, 0x00, 0x0c, 0x00, 0x00, 0x00, 0x00, 0x00,
  0x08, 0x00, 0x07, 0x00, 0x16, 0x00, 0x00, 0x00, 0x00, 0x00, 0x00, 0x01,
  0x14, 0x00, 0x00, 0x00, 0x20, 0x00, 0x00, 0x00, 0x20, 0x00, 0x00, 0x00,
  0x01, 0x00, 0x00, 0x00, 0x40, 0x00, 0x00, 0x00, 0x02, 0x00, 0x00, 0x00,
  0xff, 0xff, 0xff, 0xff, 0x02, 0x00, 0x00, 0x00, 0x04, 0x00, 0x04, 0x00,
  0x04, 0x00, 0x00, 0x00, 0x23, 0x00, 0x00, 0x00, 0x73, 0x65, 0x72, 0x76,
  0x69, 0x6e, 0x67, 0x5f, 0x64, 0x65, 0x66, 0x61, 0x75, 0x6c, 0x74, 0x5f,
  0x69, 0x6e, 0x70, 0x75, 0x74, 0x5f, 0x6c, 0x61, 0x79, 0x65, 0x72, 0x5f,
  0x69, 0x6e, 0x70, 0x75, 0x74, 0x3a, 0x30, 0x00, 0x02, 0x00, 0x00, 0x00,
  0x01, 0x00, 0x00, 0x00, 0x02, 0x00, 0x00, 0x00, 0x01, 0x00, 0x00, 0x00,
  0x10, 0x00, 0x00, 0x00, 0x0c, 0x00, 0x0c, 0x00, 0x0b, 0x00, 0x00, 0x00,
  0x00, 0x00, 0x04, 0x00, 0x0c, 0x00, 0x00, 0x00, 0x09, 0x00, 0x00, 0x00,
  0x00, 0x00, 0x00, 0x09
};
unsigned int converted_model_tflite_len = 11056;